{
  "version": "1.0",
  "truncation": null,
  "padding": null,
  "added_tokens": [
    {
      "id": 0,
      "content": "[UNK]",
      "single_word": false,
      "lstrip": false,
      "rstrip": false,
      "normalized": false,
      "special": true
    },
    {
      "id": 1,
      "content": "[CLS]",
      "single_word": false,
      "lstrip": false,
      "rstrip": false,
      "normalized": false,
      "special": true
    },
    {
      "id": 2,
      "content": "[SEP]",
      "single_word": false,
      "lstrip": false,
      "rstrip": false,
      "normalized": false,
      "special": true
    },
    {
      "id": 3,
      "content": "[PAD]",
      "single_word": false,
      "lstrip": false,
      "rstrip": false,
      "normalized": false,
      "special": true
    },
    {
      "id": 4,
      "content": "[MASK]",
      "single_word": false,
      "lstrip": false,
      "rstrip": false,
      "normalized": false,
      "special": true
    },
    {
      "id": 5,
      "content": "[PAR]",
      "single_word": false,
      "lstrip": false,
      "rstrip": false,
      "normalized": false,
      "special": true
    },
    {
      "id": 6,
      "content": "[TAB]",
      "single_word": false,
      "lstrip": false,
      "rstrip": false,
      "normalized": false,
      "special": true
    }
  ],
  "normalizer": null,
  "pre_tokenizer": {
    "type": "Sequence",
    "pretokenizers": [
      {
        "type": "ByteLevel",
        "add_prefix_space": true,
        "trim_offsets": true,
        "use_regex": true
      },
      {
        "type": "Digits",
        "individual_digits": true
      }
    ]
  },
  "post_processor": {
    "type": "ByteLevel",
    "add_prefix_space": true,
    "trim_offsets": true,
    "use_regex": true
  },
  "decoder": {
    "type": "ByteLevel",
    "add_prefix_space": true,
    "trim_offsets": true,
    "use_regex": true
  },
  "model": {
    "type": "WordPiece",
    "unk_token": "[UNK]",
    "continuing_subword_prefix": "",
    "max_input_chars_per_word": 100,
    "vocab": {
      "[UNK]": 0,
      "[CLS]": 1,
      "[SEP]": 2,
      "[PAD]": 3,
      "[MASK]": 4,
      "[PAR]": 5,
      "[TAB]": 6,
      "!": 7,
      "\"": 8,
      "#": 9,
      "$": 10,
      "%": 11,
      "&": 12,
      "'": 13,
      "(": 14,
      ")": 15,
      "*": 16,
      "+": 17,
      ",": 18,
      "-": 19,
      ".": 20,
      "/": 21,
      "0": 22,
      "1": 23,
      "2": 24,
      "3": 25,
      "4": 26,
      "5": 27,
      "6": 28,
      "7": 29,
      "8": 30,
      "9": 31,
      ":": 32,
      ";": 33,
      "<": 34,
      "=": 35,
      ">": 36,
      "?": 37,
      "@": 38,
      "A": 39,
      "B": 40,
      "C": 41,
      "D": 42,
      "E": 43,
      "F": 44,
      "G": 45,
      "H": 46,
      "I": 47,
      "J": 48,
      "K": 49,
      "L": 50,
      "M": 51,
      "N": 52,
      "O": 53,
      "P": 54,
      "Q": 55,
      "R": 56,
      "S": 57,
      "T": 58,
      "U": 59,
      "V": 60,
      "W": 61,
      "X": 62,
      "Y": 63,
      "Z": 64,
      "[": 65,
      "\\": 66,
      "]": 67,
      "^": 68,
      "_": 69,
      "`": 70,
      "a": 71,
      "b": 72,
      "c": 73,
      "d": 74,
      "e": 75,
      "f": 76,
      "g": 77,
      "h": 78,
      "i": 79,
      "j": 80,
      "k": 81,
      "l": 82,
      "m": 83,
      "n": 84,
      "o": 85,
      "p": 86,
      "q": 87,
      "r": 88,
      "s": 89,
      "t": 90,
      "u": 91,
      "v": 92,
      "w": 93,
      "x": 94,
      "y": 95,
      "z": 96,
      "{": 97,
      "|": 98,
      "}": 99,
      "~": 100,
      "¡": 101,
      "¢": 102,
      "£": 103,
      "¤": 104,
      "¥": 105,
      "¦": 106,
      "§": 107,
      "¨": 108,
      "©": 109,
      "ª": 110,
      "«": 111,
      "¬": 112,
      "®": 113,
      "¯": 114,
      "°": 115,
      "±": 116,
      "²": 117,
      "³": 118,
      "´": 119,
      "µ": 120,
      "¶": 121,
      "·": 122,
      "¸": 123,
      "¹": 124,
      "º": 125,
      "»": 126,
      "¼": 127,
      "½": 128,
      "¾": 129,
      "¿": 130,
      "Â": 131,
      "Ã": 132,
      "Ä": 133,
      "Å": 134,
      "Æ": 135,
      "Ç": 136,
      "È": 137,
      "É": 138,
      "Ê": 139,
      "Ë": 140,
      "Ï": 141,
      "Ð": 142,
      "Ø": 143,
      "Ù": 144,
      "Û": 145,
      "à": 146,
      "á": 147,
      "â": 148,
      "ã": 149,
      "ï": 150,
      "ô": 151,
      "Ġ": 152,
      "Ģ": 153,
      "ģ": 154,
      "Ĥ": 155,
      "ĥ": 156,
      "Ħ": 157,
      "ħ": 158,
      "Ĩ": 159,
      "ĩ": 160,
      "Ī": 161,
      "ī": 162,
      "Ĭ": 163,
      "ĭ": 164,
      "Į": 165,
      "į": 166,
      "İ": 167,
      "ı": 168,
      "Ĳ": 169,
      "ĳ": 170,
      "Ĵ": 171,
      "ĵ": 172,
      "Ķ": 173,
      "ķ": 174,
      "ĸ": 175,
      "Ĺ": 176,
      "ĺ": 177,
      "Ļ": 178,
      "ļ": 179,
      "Ľ": 180,
      "ľ": 181,
      "Ŀ": 182,
      "ŀ": 183,
      "Ł": 184,
      "ł": 185,
      "Ń": 186,
      "Ġt": 187,
      "Ġ\"": 188,
      "he": 189,
      "Ġa": 190,
      ".\"": 191,
      "in": 192,
      "Ġw": 193,
      "Ġ\"*": 194,
      "Ġthe": 195,
      "ou": 196,
      "Ġs": 197,
      "re": 198,
      "Ġo": 199,
      "ha": 200,
      "er": 201,
      "Ġb": 202,
      "nd": 203,
      "it": 204,
      "Ġy": 205,
      "Ġc": 206,
      "is": 207,
      "Ġm": 208,
      "Ġd": 209,
      "on": 210,
      "Ġf": 211,
      "ing": 212,
      "OT": 213,
      "MOT": 214,
      "ll": 215,
      "Ġyou": 216,
      "Ġto": 217,
      "an": 218,
      "or": 219,
      "es": 220,
      "ed": 221,
      "Ġp": 222,
      "hat": 223,
      "Ġg": 224,
      "en": 225,
      "Ġl": 226,
      "?\"": 227,
      "CH": 228,
      "Ġand": 229,
      "ĠI": 230,
      "Ġn": 231,
      "CHI": 232,
      "ar": 233,
      "Ġof": 234,
      "as": 235,
      "Ġin": 236,
      "at": 237,
      "om": 238,
      "Ġhe": 239,
      "'s": 240,
      "ow": 241,
      "Ġh": 242,
      "Ġit": 243,
      "ot": 244,
      "Ġha": 245,
      "le": 246,
      "ve": 247,
      "Ġthat": 248,
      "ay": 249,
      "Ġth": 250,
      "et": 251,
      "Ġon": 252,
      "ic": 253,
      "us": 254,
      "gh": 255,
      "id": 256,
      "Ġbe": 257,
      "Ġis": 258,
      "Ġwe": 259,
      "ld": 260,
      "Ġe": 261,
      "ut": 262,
      "al": 263,
      "oo": 264,
      "Ġwas": 265,
      "'t": 266,
      "im": 267,
      "ke": 268,
      "ac": 269,
      "Ġdo": 270,
      "Ġre": 271,
      "ver": 272,
      "ĠT": 273,
      "Ġu": 274,
      "Ġ=": 275,
      "ad": 276,
      "Ġfor": 277,
      "ght": 278,
      "Ġr": 279,
      "ir": 280,
      "ly": 281,
      "ion": 282,
      "se": 283,
      "ent": 284,
      "Ġst": 285,
      "am": 286,
      "ĠM": 287,
      "ĠS": 288,
      "out": 289,
      "Ġk": 290,
      "ĠA": 291,
      "st": 292,
      "ith": 293,
      "!\"": 294,
      "Ġme": 295,
      "ight": 296,
      "Ġan": 297,
      "ea": 298,
      "her": 299,
      "Ġwith": 300,
      "Ġwhat": 301,
      "Ġwh": 302,
      "ome": 303,
      "Ġgo": 304,
      "Ġse": 305,
      "all": 306,
      "ĠC": 307,
      "ur": 308,
      "ĠB": 309,
      "Ġas": 310,
      "ch": 311,
      "Ġnot": 312,
      "Ġli": 313,
      "Ġat": 314,
      "ter": 315,
      "ould": 316,
      "Ġhave": 317,
      "Ġthis": 318,
      "..": 319,
      "ro": 320,
      "ill": 321,
      "ĠH": 322,
      "Ġkn": 323,
      "Ġare": 324,
      "Ġno": 325,
      "ie": 326,
      "ce": 327,
      "Ġthere": 328,
      "if": 329,
      "il": 330,
      "Ġcan": 331,
      "ust": 332,
      "]\"": 333,
      "Ġ[": 334,
      "ook": 335,
      "ct": 336,
      "Ġone": 337,
      "ant": 338,
      "ĠThe": 339,
      "Ġhis": 340,
      "Ġthey": 341,
      "Ġknow": 342,
      "Ġshe": 343,
      "Ġj": 344,
      "Ġso": 345,
      "Ġdon": 346,
      "Ġyour": 347,
      "xx": 348,
      "Ġwhe": 349,
      "un": 350,
      "Ġfr": 351,
      "Ġup": 352,
      "Ġher": 353,
      "ain": 354,
      "eah": 355,
      "Ġ\"[": 356,
      "and": 357,
      "op": 358,
      "ĠP": 359,
      "Ġne": 360,
      "ell": 361,
      "ore": 362,
      "Ġmy": 363,
      "ĠD": 364,
      "um": 365,
      "Ġall": 366,
      "Ġhad": 367,
      "ab": 368,
      "Ġbut": 369,
      "Ġlike": 370,
      "our": 371,
      "Ġsh": 372,
      "ge": 373,
      "pp": 374,
      "Ġde": 375,
      "art": 376,
      "ĠJ": 377,
      "ood": 378,
      "Ġsa": 379,
      "ĠF": 380,
      "ack": 381,
      "ri": 382,
      "ol": 383,
      "Ġout": 384,
      "ĠW": 385,
      "Ġhim": 386,
      "Ġget": 387,
      "ink": 388,
      "ck": 389,
      "'re": 390,
      "ake": 391,
      "ul": 392,
      "Ġab": 393,
      "Ġpl": 394,
      "ry": 395,
      "ĠG": 396,
      "Ġdid": 397,
      "You": 398,
      "th": 399,
      "el": 400,
      "Ġal": 401,
      "...\"": 402,
      "AT": 403,
      "Ġsee": 404,
      "Ġfrom": 405,
      "ĠL": 406,
      "Ġlook": 407,
      "ig": 408,
      "ess": 409,
      "han": 410,
      "IN": 411,
      "ĠR": 412,
      "very": 413,
      ",\"": 414,
      "ation": 415,
      "Ġoh": 416,
      "red": 417,
      "Ġor": 418,
      "'m": 419,
      "Ġhere": 420,
      "Ġwere": 421,
      "ers": 422,
      "est": 423,
      "Ġby": 424,
      "qu": 425,
      "Ġsu": 426,
      "ist": 427,
      "Ġyeah": 428,
      "na": 429,
      "ound": 430,
      "ra": 431,
      "ame": 432,
      "ind": 433,
      "os": 434,
      "ĠE": 435,
      "itt": 436,
      "Ġthem": 437,
      "FAT": 438,
      "ĠN": 439,
      "Ġsome": 440,
      "Ġjust": 441,
      "ard": 442,
      "nt": 443,
      "res": 444,
      "Ġthink": 445,
      "ong": 446,
      "Ġgot": 447,
      "Ġcom": 448,
      "The": 449,
      "one": 450,
      "own": 451,
      "Ġwant": 452,
      "Ġabout": 453,
      "ak": 454,
      "use": 455,
      "Ġwho": 456,
      "ast": 457,
      "'ll": 458,
      "ive": 459,
      "em": 460,
      "Ġwor": 461,
      "Ġwould": 462,
      "ally": 463,
      "Ġsp": 464,
      "INV": 465,
      "].\"": 466,
      "ap": 467,
      "Ġright": 468,
      "ĠO": 469,
      "Ġsaid": 470,
      "Ġif": 471,
      "Ġnow": 472,
      "ate": 473,
      "Ġv": 474,
      "Ġ(": 475,
      "ep": 476,
      "ick": 477,
      "Ġcon": 478,
      "Ġbo": 479,
      "Ġex": 480,
      "ort": 481,
      "xxx": 482,
      "Ġxxx": 483,
      "--": 484,
      "Ġany": 485,
      "Ġthen": 486,
      "ice": 487,
      "Ġsay": 488,
      "ven": 489,
      "kay": 490,
      "ich": 491,
      "ime": 492,
      "fe": 493,
      "ber": 494,
      "Ġtw": 495,
      "Ġwhen": 496,
      "Ġman": 497,
      "ough": 498,
      "other": 499,
      "hi": 500,
      "Ġus": 501,
      "Ġput": 502,
      "ag": 503,
      "Ġwill": 504,
      "Ġint": 505,
      "Ġgood": 506,
      "hing": 507,
      "Ġwhere": 508,
      "ies": 509,
      "ide": 510,
      "Ġpro": 511,
      "ine": 512,
      "ĠHe": 513,
      "ous": 514,
      "ittle": 515,
      "od": 516,
      "ther": 517,
      "Ġag": 518,
      "ear": 519,
      "Ġdown": 520,
      "Ġtr": 521,
      "au": 522,
      "Ġback": 523,
      "Ġer": 524,
      "ose": 525,
      "Ġlittle": 526,
      "ost": 527,
      "It": 528,
      "Ġgoing": 529,
      "ca": 530,
      "'ve": 531,
      "Ġcome": 532,
      "Ġcould": 533,
      "Ġtime": 534,
      "Ġbeen": 535,
      "way": 536,
      "Ġcl": 537,
      "Ġ'": 538,
      "Ġover": 539,
      "Ġmore": 540,
      "Ġbr": 541,
      "Ġwhich": 542,
      "Ġvery": 543,
      "Ġwell": 544,
      "Ġhas": 545,
      "lf": 546,
      "Ġoff": 547,
      "ove": 548,
      "What": 549,
      "Ġar": 550,
      "Ġokay": 551,
      "ace": 552,
      "Ġtwo": 553,
      "ĠIt": 554,
      "Ġtoo": 555,
      "ree": 556,
      "ity": 557,
      "ite": 558,
      "AR": 559,
      "Ġqu": 560,
      "Ġhow": 561,
      "ĠK": 562,
      "Ġlet": 563,
      "Ġother": 564,
      "Ġplay": 565,
      "ĠU": 566,
      "Ġad": 567,
      "Ġpe": 568,
      "cause": 569,
      "Ġtheir": 570,
      "Ġthing": 571,
      "Ġbl": 572,
      "Ġfe": 573,
      "are": 574,
      "ft": 575,
      "ure": 576,
      "Ġthan": 577,
      "He": 578,
      "Ġle": 579,
      "And": 580,
      "my": 581,
      "Ġgr": 582,
      "Ġaf": 583,
      "reat": 584,
      "alk": 585,
      "ish": 586,
      "ment": 587,
      "ud": 588,
      "ond": 589,
      "Ġyes": 590,
      "te": 591,
      "XP": 592,
      "Yeah": 593,
      "onna": 594,
      "EXP": 595,
      "ase": 596,
      "Ġro": 597,
      "urn": 598,
      "No": 599,
      "orn": 600,
      "Ġgonna": 601,
      "Ġdoes": 602,
      "omet": 603,
      "ought": 604,
      "ue": 605,
      "iss": 606,
      "ian": 607,
      "Oh": 608,
      "age": 609,
      "hed": 610,
      "Ġmake": 611,
      "uck": 612,
      "Ġinto": 613,
      "Ġagain": 614,
      "ople": 615,
      "ect": 616,
      "Ġway": 617,
      "iv": 618,
      "Ġam": 619,
      "irst": 620,
      "Ġtake": 621,
      "ty": 622,
      "ass": 623,
      "ia": 624,
      "ble": 625,
      "ps": 626,
      "ary": 627,
      "ount": 628,
      "Ġsomet": 629,
      "ade": 630,
      "ire": 631,
      "PAR": 632,
      "Ġen": 633,
      "Ġwork": 634,
      "Ġuh": 635,
      "Ġtell": 636,
      "Ġco": 637,
      "Ġpeople": 638,
      "We": 639,
      "Ġpr": 640,
      "Ġwat": 641,
      "Ġsha": 642,
      "ov": 643,
      "Ġneed": 644,
      "act": 645,
      "pt": 646,
      "Ġfirst": 647,
      "uch": 648,
      "Ġmean": 649,
      "ren": 650,
      "Ġhand": 651,
      "Ġday": 652,
      "self": 653,
      "pl": 654,
      "ĠIn": 655,
      "Ġshould": 656,
      "ise": 657,
      "Ġcall": 658,
      "per": 659,
      "ress": 660,
      "Ġpart": 661,
      "Ġafter": 662,
      "av": 663,
      "ull": 664,
      "his": 665,
      "ci": 666,
      "Ġfl": 667,
      "ang": 668,
      "Ġun": 669,
      "ys": 670,
      "ather": 671,
      "nder": 672,
      "That": 673,
      "ord": 674,
      "uh": 675,
      "Ġbet": 676,
      "so": 677,
      "mer": 678,
      "ĠSt": 679,
      "we": 680,
      "Ġour": 681,
      "Ġthr": 682,
      "Ġcar": 683,
      "Ġte": 684,
      "augh": 685,
      "Ġcha": 686,
      "fore": 687,
      "Ġevery": 688,
      "wn": 689,
      "les": 690,
      "ff": 691,
      "Ġpo": 692,
      "Ġpre": 693,
      "Ġbecause": 694,
      "able": 695,
      "Ġmuch": 696,
      "...": 697,
      "Ġdidn": 698,
      "Ġonly": 699,
      "Well": 700,
      "ady": 701,
      "ile": 702,
      "Ġchi": 703,
      "ach": 704,
      "ĠMr": 705,
      "ting": 706,
      "be": 707,
      "Yes": 708,
      "Ġreally": 709,
      "Ġthese": 710,
      "anna": 711,
      "Ġadd": 712,
      "dy": 713,
      "Ġch": 714,
      "Ġgu": 715,
      "Ġyear": 716,
      "ool": 717,
      "thing": 718,
      "iz": 719,
      "Ġsomething": 720,
      "AN": 721,
      "irl": 722,
      "ng": 723,
      "Ġsec": 724,
      "ouse": 725,
      "oc": 726,
      "Ġdis": 727,
      "ark": 728,
      "ance": 729,
      "Ġmade": 730,
      "Ġhapp": 731,
      "ĠV": 732,
      "day": 733,
      "Ġwhy": 734,
      "ob": 735,
      "Ġwr": 736,
      "ne": 737,
      "og": 738,
      "hy": 739,
      "ru": 740,
      "Ġwanna": 741,
      "ock": 742,
      "cc": 743,
      "But": 744,
      "'d": 745,
      "oh": 746,
      "ied": 747,
      "Ġchild": 748,
      "ict": 749,
      "ated": 750,
      "ĠShe": 751,
      "Ġlong": 752,
      "Ġtalk": 753,
      "Ġsm": 754,
      "ew": 755,
      "old": 756,
      "Ġbig": 757,
      "int": 758,
      "ub": 759,
      "ory": 760,
      "Ġke": 761,
      "Ġbefore": 762,
      "Ġmay": 763,
      "Ġthree": 764,
      "Ġrem": 765,
      "hes": 766,
      "cl": 767,
      "Ġbab": 768,
      "Ġunder": 769,
      "Ġaway": 770,
      "ions": 771,
      "Ġsc": 772,
      "Ġthose": 773,
      "ip": 774,
      "Ġgirl": 775,
      "Ġim": 776,
      "IS": 777,
      "Ġact": 778,
      "oll": 779,
      "Ġcomp": 780,
      "ward": 781,
      "ving": 782,
      "ence": 783,
      "Ġum": 784,
      "Ġdoing": 785,
      "Ġhel": 786,
      "Ġturn": 787,
      "Ġwent": 788,
      "RO": 789,
      "Ġper": 790,
      "Ġnever": 791,
      "Ġask": 792,
      "Ġcr": 793,
      "ĠY": 794,
      "Ġalso": 795,
      "gg": 796,
      "man": 797,
      "Ġapp": 798,
      "Ġthought": 799,
      "ens": 800,
      "Ġold": 801,
      "ful": 802,
      "MA": 803,
      "Ġhome": 804,
      "ix": 805,
      "iend": 806,
      "ild": 807,
      "Ġ\"%": 808,
      "oot": 809,
      "ling": 810,
      "ons": 811,
      "ï¿": 812,
      "Ġcame": 813,
      "Ġthings": 814,
      "Ġbook": 815,
      "laugh": 816,
      "hen": 817,
      "rd": 818,
      "Ġple": 819,
      "Ġeven": 820,
      "So": 821,
      "Ġnew": 822,
      "Ġanother": 823,
      "ious": 824,
      ".]\"": 825,
      "ks": 826,
      "Ġgive": 827,
      "Ġbit": 828,
      "pe": 829,
      "ors": 830,
      "Ġfind": 831,
      "Ġhead": 832,
      "Ġgreat": 833,
      "Ġcont": 834,
      "Ġmust": 835,
      "Ġtry": 836,
      "ans": 837,
      "Ġeat": 838,
      "ath": 839,
      "Ġdone": 840,
      "ĠCh": 841,
      "Ġlove": 842,
      "ved": 843,
      "Ġsl": 844,
      "Ġstart": 845,
      "Ġhelp": 846,
      "Ġthrough": 847,
      "Ġlea": 848,
      "Ġboy": 849,
      "oy": 850,
      "get": 851,
      "ily": 852,
      "Ġhouse": 853,
      "ny": 854,
      "Ġmom": 855,
      "ings": 856,
      "Ġbu": 857,
      "Ġshow": 858,
      "aking": 859,
      "ign": 860,
      "Ġstill": 861,
      "Ġbaby": 862,
      "ait": 863,
      "Ġlast": 864,
      "ĠFr": 865,
      "ried": 866,
      "here": 867,
      "igh": 868,
      "ave": 869,
      "Ġres": 870,
      "Ġmany": 871,
      "TE": 872,
      "Ġname": 873,
      "air": 874,
      "âĢ": 875,
      "Ġwon": 876,
      "Ġlot": 877,
      "GMA": 878,
      "akes": 879,
      "ail": 880,
      "ww": 881,
      "Ġche": 882,
      "HE": 883,
      "Ġmight": 884,
      "ms": 885,
      "xt": 886,
      "Ġser": 887,
      "ened": 888,
      "tain": 889,
      "ars": 890,
      "ody": 891,
      "Ġchan": 892,
      "Ġop": 893,
      "aw": 894,
      "als": 895,
      "ves": 896,
      "hm": 897,
      "Ġmin": 898,
      "ĠUn": 899,
      "Ġnight": 900,
      "ually": 901,
      "Ġkind": 902,
      "Ġfound": 903,
      "ah": 904,
      "ummy": 905,
      "Ġmother": 906,
      "med": 907,
      "Ġbel": 908,
      "âĻ": 909,
      "Ġdif": 910,
      "iver": 911,
      "up": 912,
      "ĠThey": 913,
      "laughs": 914,
      "ates": 915,
      "Ġsit": 916,
      "ult": 917,
      "chool": 918,
      "port": 919,
      "Ġcount": 920,
      "Ġmov": 921,
      "Ġcare": 922,
      "land": 923,
      "side": 924,
      "Ġah": 925,
      "Ġrec": 926,
      "oney": 927,
      "ater": 928,
      "Ġfeel": 929,
      "Ġmost": 930,
      "âĻª": 931,
      "Ġfour": 932,
      "anc": 933,
      "Ġbot": 934,
      "Ġown": 935,
      "Ġcalled": 936,
      "body": 937,
      "oss": 938,
      "Ġfriend": 939,
      "BRO": 940,
      "Ġbetter": 941,
      "Ġcomm": 942,
      "rent": 943,
      "Ġused": 944,
      "ember": 945,
      "und": 946,
      "Ġel": 947,
      "Ġlooks": 948,
      "Ġaround": 949,
      "Ġsuch": 950,
      "Ġerm": 951,
      "Ġkeep": 952,
      "Ġsure": 953,
      "ever": 954,
      "ee": 955,
      "Ġend": 956,
      "Ġisn": 957,
      "Ġyears": 958,
      "Ġdes": 959,
      "Ġlife": 960,
      "Ġits": 961,
      "imes": 962,
      "Ġbeing": 963,
      "Ġcour": 964,
      "Ġplace": 965,
      "Ġstr": 966,
      "They": 967,
      "orry": 968,
      "addy": 969,
      "Ġwater": 970,
      "Ġanything": 971,
      "ple": 972,
      "Ġey": 973,
      "How": 974,
      "Ġnice": 975,
      "MCH": 976,
      "Ġgl": 977,
      "rest": 978,
      "ical": 979,
      "uc": 980,
      "Ġball": 981,
      "ways": 982,
      "She": 983,
      "Ġmat": 984,
      "Ġsame": 985,
      "ning": 986,
      "ince": 987,
      "oun": 988,
      "ĠBr": 989,
      "ank": 990,
      "the": 991,
      "Ġwhile": 992,
      "Ġstop": 993,
      "ute": 994,
      "Ġshall": 995,
      "Ġdoesn": 996,
      "Ġsupp": 997,
      "Ġdr": 998,
      "Ġmon": 999,
      "orm": 1000,
      "ited": 1001,
      "ĠAnd": 1002,
      "Ġfin": 1003,
      "ĠBut": 1004,
      "ope": 1005,
      "Ġwait": 1006,
      "This": 1007,
      "ph": 1008,
      "Ġplease": 1009,
      "ican": 1010,
      "Ġcle": 1011,
      "Ġroom": 1012,
      "led": 1013,
      "ations": 1014,
      "ident": 1015,
      "Ġrun": 1016,
      "Ġnext": 1017,
      "Ġpol": 1018,
      "row": 1019,
      "ner": 1020,
      "Ġtold": 1021,
      "Ġschool": 1022,
      "Ġbre": 1023,
      "Ġfar": 1024,
      "Ġsw": 1025,
      "ction": 1026,
      "ĠMar": 1027,
      "Ġelse": 1028,
      "Ġatt": 1029,
      "Why": 1030,
      "Ġset": 1031,
      "SIS": 1032,
      "ss": 1033,
      "ition": 1034,
      "pr": 1035,
      "outh": 1036,
      "NAN": 1037,
      "Do": 1038,
      "If": 1039,
      "ĠAl": 1040,
      "ta": 1041,
      "Ġmhm": 1042,
      "Ġword": 1043,
      "bab": 1044,
      "There": 1045,
      "ung": 1046,
      "Ġwee": 1047,
      "Ġleft": 1048,
      "Ġalways": 1049,
      "arly": 1050,
      "ont": 1051,
      "Ġread": 1052,
      "Ġhard": 1053,
      "ho": 1054,
      "Ġspe": 1055,
      "Ġdiffe": 1056,
      "Ġpres": 1057,
      "mber": 1058,
      "aught": 1059,
      "Ġbeg": 1060,
      "Ġhold": 1061,
      "Ġdist": 1062,
      "Ġfun": 1063,
      "ness": 1064,
      "ĠAmer": 1065,
      "Ġbus": 1066,
      "ĠMummy": 1067,
      "Ġthank": 1068,
      "ream": 1069,
      "Ġfather": 1070,
      "Ġface": 1071,
      "ĠCha": 1072,
      "Ġ_": 1073,
      "Ġacc": 1074,
      "Ġgone": 1075,
      "Ġmen": 1076,
      "Ġunt": 1077,
      "âĢĵ": 1078,
      "ohn": 1079,
      "Ġbec": 1080,
      "Ġcol": 1081,
      "Ġtook": 1082,
      "Ġmoney": 1083,
      "ows": 1084,
      "Ġpoint": 1085,
      "Ġsaw": 1086,
      "----": 1087,
      "Ġquite": 1088,
      "Ġac": 1089,
      "vel": 1090,
      "right": 1091,
      "Ġwalk": 1092,
      "Ġdra": 1093,
      "mp": 1094,
      "Ġfive": 1095,
      "ug": 1096,
      "ĠCHI": 1097,
      "Ġuse": 1098,
      "leep": 1099,
      "Ġgoes": 1100,
      "Ġfam": 1101,
      "Ġopen": 1102,
      "Ġhm": 1103,
      "pect": 1104,
      "Ġob": 1105,
      "Ġind": 1106,
      "ES": 1107,
      "eb": 1108,
      "Ġbed": 1109,
      "ished": 1110,
      "Ġstand": 1111,
      "Don": 1112,
      "ane": 1113,
      "Ġnum": 1114,
      "Ġenough": 1115,
      "ĠThis": 1116,
      "Ġbox": 1117,
      "gr": 1118,
      "Ġsorry": 1119,
      "Ġsur": 1120,
      "oon": 1121,
      "Ġsays": 1122,
      "Ġthough": 1123,
      "Ġele": 1124,
      "me": 1125,
      "ĠAs": 1126,
      "erson": 1127,
      "ters": 1128,
      "Ġuntil": 1129,
      "Ġhear": 1130,
      "ins": 1131,
      "Ġhuh": 1132,
      "ton": 1133,
      "Ġwatch": 1134,
      "Ġcoming": 1135,
      "ib": 1136,
      "Ġreal": 1137,
      "ts": 1138,
      "Ġcourse": 1139,
      "Ġdoor": 1140,
      "\".": 1141,
      "Ġever": 1142,
      "Ġstay": 1143,
      "uff": 1144,
      "Ġcat": 1145,
      "ĠAn": 1146,
      "ump": 1147,
      "ĠTHE": 1148,
      "ush": 1149,
      "az": 1150,
      "Ġwar": 1151,
      "Ġret": 1152,
      "Ġtoday": 1153,
      "ĠJohn": 1154,
      "OU": 1155,
      "Ġside": 1156,
      "ject": 1157,
      "Okay": 1158,
      "ces": 1159,
      "Ġpass": 1160,
      "vent": 1161,
      "Ġeyes": 1162,
      "tern": 1163,
      "Ġknown": 1164,
      "Ġwom": 1165,
      "Ġlight": 1166,
      "orning": 1167,
      "Ġreg": 1168,
      "Ġred": 1169,
      "Ġpick": 1170,
      "ike": 1171,
      "Ġfew": 1172,
      "Now": 1173,
      "Ġnothing": 1174,
      "ason": 1175,
      "TEA": 1176,
      "eak": 1177,
      "Ġair": 1178,
      "Ġbest": 1179,
      "ower": 1180,
      "Ġsing": 1181,
      "ational": 1182,
      "Ġasked": 1183,
      "LL": 1184,
      "ible": 1185,
      "ĠAr": 1186,
      "Ġter": 1187,
      "Ġyoung": 1188,
      "rew": 1189,
      "Ġbelie": 1190,
      "Ġsix": 1191,
      "Than": 1192,
      "ired": 1193,
      "Ġyet": 1194,
      "Ġseen": 1195,
      "ĠMOT": 1196,
      "ial": 1197,
      "Ġchildren": 1198,
      "ird": 1199,
      "ames": 1200,
      "Ġph": 1201,
      "fta": 1202,
      "Ġhafta": 1203,
      "Ġdifferent": 1204,
      "Ġupon": 1205,
      "Ġremember": 1206,
      "ger": 1207,
      "Ġpap": 1208,
      "Come": 1209,
      "Ġfell": 1210,
      "ĠThere": 1211,
      "Ġhur": 1212,
      "Ġfall": 1213,
      "ĠMiss": 1214,
      "Ġmorning": 1215,
      "Ġsecond": 1216,
      "ĠMrs": 1217,
      "ross": 1218,
      "der": 1219,
      "ier": 1220,
      "ased": 1221,
      ").": 1222,
      "Ġchar": 1223,
      "Ġleave": 1224,
      "Er": 1225,
      "Ġround": 1226,
      "Ġlist": 1227,
      "uring": 1228,
      "Ġent": 1229,
      "Ġinte": 1230,
      "ĠYou": 1231,
      "Ġhands": 1232,
      "Ġdear": 1233,
      "Ġmind": 1234,
      "fect": 1235,
      "ween": 1236,
      "Ġlooking": 1237,
      "Is": 1238,
      "orth": 1239,
      "gether": 1240,
      "Ġmar": 1241,
      "mb": 1242,
      "Ġtogether": 1243,
      "Ġkill": 1244,
      "Ġgetting": 1245,
      "ret": 1246,
      "Ġrel": 1247,
      "oor": 1248,
      "RA": 1249,
      "ING": 1250,
      "tle": 1251,
      "ures": 1252,
      "Ġmil": 1253,
      "cle": 1254,
      "Ġbro": 1255,
      "Let": 1256,
      "ash": 1257,
      "amp": 1258,
      "ines": 1259,
      "Ġsound": 1260,
      "ister": 1261,
      "ĠNew": 1262,
      "by": 1263,
      "ok": 1264,
      "Ġsmall": 1265,
      "ollow": 1266,
      "Ġhimself": 1267,
      "Ġrest": 1268,
      "Ġtri": 1269,
      "Ġonce": 1270,
      "ER": 1271,
      "ork": 1272,
      "Ġbetween": 1273,
      "Ġpret": 1274,
      "Ġboth": 1275,
      "ĠEd": 1276,
      "Ġsil": 1277,
      "ener": 1278,
      "Ġsleep": 1279,
      "omb": 1280,
      "Ġanim": 1281,
      "cha": 1282,
      "Ġbad": 1283,
      "Ġfoot": 1284,
      "its": 1285,
      "FCH": 1286,
      "Ġpie": 1287,
      "Ġheart": 1288,
      "most": 1289,
      "less": 1290,
      "huh": 1291,
      "ĠDe": 1292,
      "Mm": 1293,
      "Ġeach": 1294,
      "Ġhaving": 1295,
      "Ġhigh": 1296,
      "Hey": 1297,
      "ote": 1298,
      "Ġheard": 1299,
      "ĠGr": 1300,
      "Ġtable": 1301,
      "ctor": 1302,
      "ma": 1303,
      "ating": 1304,
      "ange": 1305,
      "Ġhalf": 1306,
      "Ġlater": 1307,
      "ĠInd": 1308,
      "Ġca": 1309,
      "Ġwithout": 1310,
      "ĠAmerican": 1311,
      "ball": 1312,
      "Ġcap": 1313,
      "Ġready": 1314,
      "reen": 1315,
      "Ġmm": 1316,
      "ĠTh": 1317,
      "Ġmaking": 1318,
      "Ġwind": 1319,
      "ets": 1320,
      "ered": 1321,
      "Ġworld": 1322,
      "Ġnoise": 1323,
      "oice": 1324,
      "Ġsoon": 1325,
      "Ġalright": 1326,
      "Ġtop": 1327,
      "Ġcons": 1328,
      "Ġchair": 1329,
      "AD": 1330,
      "ten": 1331,
      "ents": 1332,
      "Ġsort": 1333,
      "Ġi": 1334,
      "Ġdec": 1335,
      "Ġpretty": 1336,
      "Ġperson": 1337,
      "Ġknew": 1338,
      "ĠMom": 1339,
      "stand": 1340,
      "ĠChr": 1341,
      "Ġinst": 1342,
      "Ġpop": 1343,
      "Ġagainst": 1344,
      "Ġdied": 1345,
      "ocal": 1346,
      "Ġlooked": 1347,
      "ises": 1348,
      "All": 1349,
      "Ġdire": 1350,
      "Ġmove": 1351,
      "ged": 1352,
      "any": 1353,
      "ama": 1354,
      "ON": 1355,
      "Ġhappened": 1356,
      "Ġmaybe": 1357,
      "Ġsk": 1358,
      "Ġwanted": 1359,
      "Ġeverything": 1360,
      "oe": 1361,
      "Ġtalking": 1362,
      "bo": 1363,
      "Ġhaven": 1364,
      "cept": 1365,
      "Ġ\"âĻª": 1366,
      "Ġmus": 1367,
      "ife": 1368,
      "une": 1369,
      "ted": 1370,
      "ched": 1371,
      "ision": 1372,
      "Ġfollow": 1373,
      "osed": 1374,
      "Ġblack": 1375,
      "pped": 1376,
      "Ġhey": 1377,
      "iet": 1378,
      "My": 1379,
      "\",": 1380,
      "Ġmiss": 1381,
      "ief": 1382,
      "Not": 1383,
      "Ġdog": 1384,
      "ertain": 1385,
      "www": 1386,
      "Ġnumber": 1387,
      "In": 1388,
      "den": 1389,
      "St": 1390,
      "Ġsn": 1391,
      "br": 1392,
      "Ġmeet": 1393,
      "Ġans": 1394,
      "uss": 1395,
      "Ġfire": 1396,
      "ĠGer": 1397,
      "Ġdri": 1398,
      "Ġhour": 1399,
      "),": 1400,
      "Ġlive": 1401,
      "Ġbring": 1402,
      "Ġactually": 1403,
      "Ġinterest": 1404,
      "ĠDaddy": 1405,
      "ither": 1406,
      "Ġeight": 1407,
      "Ġgave": 1408,
      "tend": 1409,
      "ale": 1410,
      "OR": 1411,
      "key": 1412,
      "wards": 1413,
      "Ġhell": 1414,
      "Ġborn": 1415,
      "cial": 1416,
      "Ġï¿": 1417,
      "Ġass": 1418,
      "Ġlar": 1419,
      "ches": 1420,
      "ubl": 1421,
      "Ġbreak": 1422,
      "Ġcut": 1423,
      "Ġdays": 1424,
      "Ġmoment": 1425,
      "Ġwond": 1426,
      "ĠBe": 1427,
      "Ġcur": 1428,
      "Ġfamily": 1429,
      "Ġgame": 1430,
      "ĠEng": 1431,
      "clud": 1432,
      "Ġquest": 1433,
      "ern": 1434,
      "Ġsub": 1435,
      "bably": 1436,
      "Ġfood": 1437,
      "ual": 1438,
      "io": 1439,
      "iness": 1440,
      "ised": 1441,
      "Ġbelieve": 1442,
      "Ġaw": 1443,
      "Ġinv": 1444,
      "Ġdar": 1445,
      "Ġtrain": 1446,
      "Ġid": 1447,
      "Ġtrying": 1448,
      "ĠOn": 1449,
      "Ġhor": 1450,
      "Ġdin": 1451,
      "ced": 1452,
      "ĠUnited": 1453,
      "Ġtown": 1454,
      "sel": 1455,
      "Ġpaper": 1456,
      "Ġsince": 1457,
      "Ġmet": 1458,
      "aut": 1459,
      "ax": 1460,
      "Ġstory": 1461,
      "Ġhat": 1462,
      "Ġalong": 1463,
      "Ġboys": 1464,
      "Who": 1465,
      "Ġwhole": 1466,
      "Ġmatter": 1467,
      "sh": 1468,
      "but": 1469,
      "ready": 1470,
      "Ġfact": 1471,
      "Ġkid": 1472,
      "Ġalmost": 1473,
      "Ġfull": 1474,
      "ĠGod": 1475,
      "Ġref": 1476,
      "Ġpict": 1477,
      "Ġwasn": 1478,
      "Ġeas": 1479,
      "part": 1480,
      "icha": 1481,
      "app": 1482,
      "Ġdel": 1483,
      "Are": 1484,
      "Where": 1485,
      "Ġdraw": 1486,
      "Thank": 1487,
      "Ġten": 1488,
      "ĠCl": 1489,
      "Ġsqu": 1490,
      "Ġinter": 1491,
      "ield": 1492,
      "GRA": 1493,
      "uth": 1494,
      "enty": 1495,
      "Ġclose": 1496,
      "oke": 1497,
      "ative": 1498,
      "Just": 1499,
      "vers": 1500,
      "Ġhot": 1501,
      "hip": 1502,
      "ics": 1503,
      "ony": 1504,
      "ĠHar": 1505,
      "Ġstick": 1506,
      "Be": 1507,
      "unt": 1508,
      "Ġteam": 1509,
      "ular": 1510,
      "Ġunderstand": 1511,
      "orrow": 1512,
      "vern": 1513,
      "ye": 1514,
      "ĠAt": 1515,
      "Ġdrink": 1516,
      "arl": 1517,
      "ec": 1518,
      "Ġdoll": 1519,
      "ants": 1520,
      "Ġcomes": 1521,
      "aj": 1522,
      "ped": 1523,
      "ined": 1524,
      "Ġjob": 1525,
      "Ġstarted": 1526,
      "Ġsaying": 1527,
      "Ġswe": 1528,
      "ĠWe": 1529,
      "elt": 1530,
      "Ġalready": 1531,
      "ery": 1532,
      "Ġtra": 1533,
      "Ġspeak": 1534,
      "Ġreturn": 1535,
      "Ġpull": 1536,
      "Ġcity": 1537,
      "Ġguess": 1538,
      "Ġstuff": 1539,
      "ex": 1540,
      "Ġdarling": 1541,
      "to": 1542,
      "Ġrep": 1543,
      "aken": 1544,
      "Ġblue": 1545,
      "Ġexc": 1546,
      "aster": 1547,
      "Ġnear": 1548,
      "Ġlaugh": 1549,
      "ĠZ": 1550,
      "Ġwouldn": 1551,
      "ities": 1552,
      "Ġposs": 1553,
      "Ġwonder": 1554,
      "ouch": 1555,
      "Ġplaying": 1556,
      "ives": 1557,
      "Ġprobably": 1558,
      "ĠAf": 1559,
      "ĠChrist": 1560,
      "Ġdro": 1561,
      "Ġbuild": 1562,
      "Ġimp": 1563,
      "Ġsign": 1564,
      "ries": 1565,
      "Ġbrother": 1566,
      "Ġland": 1567,
      "Ġsent": 1568,
      "Ġtimes": 1569,
      "ĠSte": 1570,
      "Ġwoman": 1571,
      "Ġhair": 1572,
      "Ġplayed": 1573,
      "Ġdisc": 1574,
      "Ġwrong": 1575,
      "oup": 1576,
      "ina": 1577,
      "Ġfeet": 1578,
      "where": 1579,
      "Ġinf": 1580,
      "kes": 1581,
      "Ġinc": 1582,
      "Right": 1583,
      "Good": 1584,
      "ues": 1585,
      "Ġproble": 1586,
      "Ġhope": 1587,
      "oud": 1588,
      "Ġpur": 1589,
      "Ġson": 1590,
      "Ġcent": 1591,
      "Did": 1592,
      "ĠSo": 1593,
      "Ġminute": 1594,
      "iew": 1595,
      "Ġwhite": 1596,
      "Ġvoice": 1597,
      "Ġgi": 1598,
      "Ġfriends": 1599,
      "Ġpay": 1600,
      "rict": 1601,
      "Ġsy": 1602,
      "Ġinclud": 1603,
      "Look": 1604,
      "enn": 1605,
      "ĠStates": 1606,
      "Ġduring": 1607,
      "ĠFl": 1608,
      "EN": 1609,
      "ying": 1610,
      "ĠAd": 1611,
      "Ġmonth": 1612,
      "ific": 1613,
      "ĠJap": 1614,
      "Ġconf": 1615,
      "Ġfloor": 1616,
      "Ġcountry": 1617,
      "ring": 1618,
      "itting": 1619,
      "Ġmeans": 1620,
      "KF": 1621,
      "Ġplan": 1622,
      "Ġste": 1623,
      "ently": 1624,
      "Ġpoor": 1625,
      "Ġsim": 1626,
      "ully": 1627,
      "ense": 1628,
      "haps": 1629,
      "Ġidea": 1630,
      "Ġlost": 1631,
      "undred": 1632,
      "ital": 1633,
      "Ġyell": 1634,
      "aces": 1635,
      "ats": 1636,
      "Ġgotta": 1637,
      "airs": 1638,
      "Ġbrought": 1639,
      "ivers": 1640,
      "Ġmovie": 1641,
      "Ġquick": 1642,
      "Ġbecame": 1643,
      "Can": 1644,
      "Ġdeath": 1645,
      "Ġbeaut": 1646,
      "Ġleg": 1647,
      "UR": 1648,
      "Ġstud": 1649,
      "child": 1650,
      "aid": 1651,
      "ĠBen": 1652,
      "Ġyourself": 1653,
      "ĠThen": 1654,
      "Ġseemed": 1655,
      "Ġhappy": 1656,
      "Ġones": 1657,
      "ric": 1658,
      "Ġrather": 1659,
      "ize": 1660,
      "Ġform": 1661,
      "ones": 1662,
      "ĠHis": 1663,
      "ared": 1664,
      "Ã©": 1665,
      "ster": 1666,
      "Ġmine": 1667,
      "Then": 1668,
      "ages": 1669,
      "Ġgrand": 1670,
      "Ġexp": 1671,
      "oes": 1672,
      "ĠBart": 1673,
      "Ġcoll": 1674,
      "ĠIs": 1675,
      "Ġhundred": 1676,
      "Ġpain": 1677,
      "Ġshort": 1678,
      "cted": 1679,
      "eth": 1680,
      "ley": 1681,
      "Ġcertain": 1682,
      "ĠWhen": 1683,
      "âĻª\"": 1684,
      "Ġfine": 1685,
      "ĠâĢĵ": 1686,
      "olog": 1687,
      "Ġsir": 1688,
      "Ġgreen": 1689,
      "Ġgirls": 1690,
      "enc": 1691,
      "Ġturned": 1692,
      "Ġcontin": 1693,
      "Ġwin": 1694,
      "room": 1695,
      "wer": 1696,
      "Ġage": 1697,
      "ĠMay": 1698,
      "Ġweek": 1699,
      "Ġbegan": 1700,
      "Ġmusic": 1701,
      "Ġmag": 1702,
      "Ġbeh": 1703,
      "ald": 1704,
      "ape": 1705,
      "Ġexpl": 1706,
      "Ġstra": 1707,
      "Ġstate": 1708,
      "ĠUh": 1709,
      "eter": 1710,
      "Ġwords": 1711,
      "cess": 1712,
      "Ġgener": 1713,
      "bles": 1714,
      "ments": 1715,
      "ipp": 1716,
      "ober": 1717,
      "Ġdaddy": 1718,
      "Ġlead": 1719,
      "ene": 1720,
      "Ġmouth": 1721,
      "Ġmakes": 1722,
      "Ġfront": 1723,
      "ĠRe": 1724,
      "ese": 1725,
      "Ġaren": 1726,
      "ided": 1727,
      "Ġmyself": 1728,
      "Ġtaken": 1729,
      "]?\"": 1730,
      "Ġoutside": 1731,
      "Ġprod": 1732,
      "ention": 1733,
      "utes": 1734,
      "Ġsat": 1735,
      "Ġfav": 1736,
      "ĠSp": 1737,
      "son": 1738,
      "Ġprom": 1739,
      "Ġlady": 1740,
      "ĠTom": 1741,
      "ured": 1742,
      "Ġdat": 1743,
      "Ġparty": 1744,
      "Ġable": 1745,
      "ressed": 1746,
      "Ġcolor": 1747,
      ".'": 1748,
      "sing": 1749,
      "ask": 1750,
      "Ġarea": 1751,
      "Ġwants": 1752,
      "ison": 1753,
      "Ġfight": 1754,
      "Ġbehind": 1755,
      "Ġlad": 1756,
      "aser": 1757,
      "Ġcry": 1758,
      "omba": 1759,
      "Ġhappen": 1760,
      "Ġtele": 1761,
      "rog": 1762,
      "ford": 1763,
      "Ġdead": 1764,
      "irty": 1765,
      "ik": 1766,
      "oint": 1767,
      "Ġsong": 1768,
      "ĠDav": 1769,
      "ized": 1770,
      "Ġtre": 1771,
      "When": 1772,
      "Ġcir": 1773,
      "ĠIN": 1774,
      "ĠCom": 1775,
      "Ġwrite": 1776,
      "ury": 1777,
      "olly": 1778,
      "not": 1779,
      "used": 1780,
      "no": 1781,
      "Ġes": 1782,
      "Ġprov": 1783,
      "ral": 1784,
      "selves": 1785,
      "Ġtaking": 1786,
      "ruary": 1787,
      "Ġimport": 1788,
      "ebruary": 1789,
      "Ġfunny": 1790,
      "ole": 1791,
      "iful": 1792,
      "Ġless": 1793,
      "DAD": 1794,
      "ĠFor": 1795,
      "fully": 1796,
      "Ġpat": 1797,
      "dle": 1798,
      "Ġfelt": 1799,
      "Ġmain": 1800,
      "Ġgiven": 1801,
      "RE": 1802,
      "iam": 1803,
      "Ġbusiness": 1804,
      "lish": 1805,
      "Ġoffic": 1806,
      "ned": 1807,
      "ĠCount": 1808,
      "ouble": 1809,
      "Ġtoys": 1810,
      "Ġcase": 1811,
      "Ġed": 1812,
      "Ġcra": 1813,
      "Ġoften": 1814,
      "Ġrecord": 1815,
      "Ġline": 1816,
      "Ġext": 1817,
      "Ġanimals": 1818,
      "Ġbear": 1819,
      "head": 1820,
      "ider": 1821,
      "Ġminutes": 1822,
      "Ġmommy": 1823,
      "ĠMommy": 1824,
      "ĠJapan": 1825,
      "Ġlear": 1826,
      "Ġguys": 1827,
      "Ġserv": 1828,
      "gin": 1829,
      "irth": 1830,
      "Ġbar": 1831,
      "Ġdeal": 1832,
      "Ġsometimes": 1833,
      "Ġquestion": 1834,
      "Ġya": 1835,
      "anger": 1836,
      "Ġchange": 1837,
      "ĠFebruary": 1838,
      "Ġlate": 1839,
      "ĠGe": 1840,
      "Ġ\"'": 1841,
      "essie": 1842,
      "ĠBomba": 1843,
      "EL": 1844,
      "ĠQ": 1845,
      "Ġmess": 1846,
      "Ġocc": 1847,
      "Ġtwenty": 1848,
      "Ġduck": 1849,
      "anor": 1850,
      "ĠCar": 1851,
      "ĠFraser": 1852,
      "Ġtom": 1853,
      "Ġpresent": 1854,
      "Erm": 1855,
      "rence": 1856,
      "ert": 1857,
      "ĠPh": 1858,
      "Ġpicture": 1859,
      "Ġeither": 1860,
      "lease": 1861,
      "Ġev": 1862,
      "reet": 1863,
      "Ġcold": 1864,
      "ained": 1865,
      "Ġtill": 1866,
      "Ġmed": 1867,
      "ĠChar": 1868,
      "Ġleast": 1869,
      "ander": 1870,
      "Ġbase": 1871,
      "Ġseven": 1872,
      "Ġlisten": 1873,
      "ĠEle": 1874,
      "Ġsomeone": 1875,
      "Ġcouldn": 1876,
      "ada": 1877,
      "Ġpiece": 1878,
      "anu": 1879,
      "ĠOh": 1880,
      "ffe": 1881,
      "ĠWill": 1882,
      "Ġrock": 1883,
      "Ġyellow": 1884,
      "ots": 1885,
      "Ġhello": 1886,
      "ides": 1887,
      "ĠTO": 1888,
      "Ġsweet": 1889,
      "LD": 1890,
      "ara": 1891,
      "gie": 1892,
      "amed": 1893,
      "Ġclot": 1894,
      "Ġhum": 1895,
      "Ġvis": 1896,
      "gan": 1897,
      "May": 1898,
      "ming": 1899,
      "Go": 1900,
      "ards": 1901,
      "ey": 1902,
      "Ġem": 1903,
      "Ġboat": 1904,
      "Th": 1905,
      "owing": 1906,
      "ĠYork": 1907,
      "ĠIndian": 1908,
      "Ã¡": 1909,
      "aughter": 1910,
      "uly": 1911,
      "ze": 1912,
      "arent": 1913,
      "Ġhorse": 1914,
      "Ġcook": 1915,
      "Ġfig": 1916,
      "Ġins": 1917,
      "eng": 1918,
      "Ġpubl": 1919,
      "unch": 1920,
      "ains": 1921,
      "Ġroad": 1922,
      "Ġlarge": 1923,
      "IT": 1924,
      "Ġhi": 1925,
      "Ġhurt": 1926,
      "ĠPr": 1927,
      "Ġdef": 1928,
      "Ġguy": 1929,
      "ĠLe": 1930,
      "fort": 1931,
      "Ġfif": 1932,
      "iously": 1933,
      "Ġstrong": 1934,
      "Ġpolit": 1935,
      "ĠBl": 1936,
      "UN": 1937,
      "born": 1938,
      "Ġpri": 1939,
      "Ġago": 1940,
      "ĠYeah": 1941,
      "een": 1942,
      "Ġinside": 1943,
      "idge": 1944,
      "Ġwife": 1945,
      "unk": 1946,
      "rap": 1947,
      "Ġbeautiful": 1948,
      "Ġwish": 1949,
      "Ġalone": 1950,
      "Ġmid": 1951,
      "Ġgovern": 1952,
      "Ġrepl": 1953,
      "Get": 1954,
      "you": 1955,
      "ham": 1956,
      "Ġbirth": 1957,
      "--------": 1958,
      "Ġherself": 1959,
      "Ġothers": 1960,
      "illy": 1961,
      "Ġbody": 1962,
      "Ġeng": 1963,
      "ution": 1964,
      "ĠMag": 1965,
      "zz": 1966,
      "Ġdark": 1967,
      "Ġtrue": 1968,
      "AS": 1969,
      "ĠCounty": 1970,
      "ounc": 1971,
      "read": 1972,
      "iting": 1973,
      "Ġdinner": 1974,
      "Ġbooks": 1975,
      "ica": 1976,
      "Ġground": 1977,
      "ĠâĻª\"": 1978,
      "Ġimportant": 1979,
      "Ġreason": 1980,
      "Ġpower": 1981,
      "Ġfing": 1982,
      "Your": 1983,
      "Ġfore": 1984,
      "Ġfish": 1985,
      "Ġletter": 1986,
      "ĠBessie": 1987,
      "Ġcheck": 1988,
      "ĠYOU": 1989,
      "aul": 1990,
      "ĠHer": 1991,
      "aim": 1992,
      "ĠAll": 1993,
      "LE": 1994,
      "ĠPe": 1995,
      "ety": 1996,
      "atur": 1997,
      "TER": 1998,
      "aur": 1999,
      "Ġtree": 2000,
      "Ġfair": 2001,
      "oub": 2002,
      "Ġopp": 2003,
      "lex": 2004,
      "Ġfinished": 2005,
      "Ġblock": 2006,
      "Ġgets": 2007,
      "har": 2008,
      "Ġclean": 2009,
      "Ġmill": 2010,
      "ĠIf": 2011,
      "Ġmark": 2012,
      "let": 2013,
      "Ġwear": 2014,
      "Ġworking": 2015,
      "ept": 2016,
      "Ġty": 2017,
      "Ġtrans": 2018,
      "Ġlay": 2019,
      "ator": 2020,
      "anuary": 2021,
      "Ġsister": 2022,
      "II": 2023,
      "ists": 2024,
      "ousand": 2025,
      "Ġadv": 2026,
      "Ġgun": 2027,
      "aced": 2028,
      "ĠBar": 2029,
      "ately": 2030,
      "oof": 2031,
      "RI": 2032,
      "ĠPro": 2033,
      "Ġpast": 2034,
      "Ġforg": 2035,
      "Ġlov": 2036,
      "els": 2037,
      "Mr": 2038,
      "Ġorder": 2039,
      "Ġsum": 2040,
      "Ġmot": 2041,
      "Ġpartic": 2042,
      "ĠCH": 2043,
      "Ġsun": 2044,
      "for": 2045,
      "Ġtried": 2046,
      "Ġfuck": 2047,
      "Ġhon": 2048,
      "Ġrece": 2049,
      "ĠCon": 2050,
      "Ġamong": 2051,
      "gy": 2052,
      "Ġexam": 2053,
      "iving": 2054,
      "iding": 2055,
      "Ġearly": 2056,
      "Ġart": 2057,
      "ĠSc": 2058,
      "ĠBob": 2059,
      "umb": 2060,
      "itch": 2061,
      "ĠDavid": 2062,
      "ana": 2063,
      "Ġacross": 2064,
      "Ġbat": 2065,
      "ead": 2066,
      "Ġpos": 2067,
      "Ġtouch": 2068,
      "Ġsitting": 2069,
      "ĠWar": 2070,
      "Ġbath": 2071,
      "Ġra": 2072,
      "Ġlo": 2073,
      "ĠHow": 2074,
      "ken": 2075,
      "For": 2076,
      "Ġglad": 2077,
      "Ġriver": 2078,
      "angu": 2079,
      "Ġproblem": 2080,
      "ĠEnglish": 2081,
      "Ġreac": 2082,
      "end": 2083,
      "teen": 2084,
      "ĠChi": 2085,
      "pril": 2086,
      "ichael": 2087,
      "ĠEleanor": 2088,
      "ering": 2089,
      "Ġstar": 2090,
      "Ġroll": 2091,
      "Ġda": 2092,
      "Ġprot": 2093,
      "Ġfootball": 2094,
      "Ġdistrict": 2095,
      "Ġbur": 2096,
      "Ġsomebody": 2097,
      "lly": 2098,
      "Ġchance": 2099,
      "Ġran": 2100,
      "Here": 2101,
      "Ġcup": 2102,
      "ĠTH": 2103,
      "ĠJanuary": 2104,
      "gas": 2105,
      "rat": 2106,
      "ĠAfter": 2107,
      "bit": 2108,
      "cri": 2109,
      "Ġfree": 2110,
      "ement": 2111,
      "Ġconc": 2112,
      "Ġexpect": 2113,
      "ality": 2114,
      "Ġbuy": 2115,
      "URS": 2116,
      "ĠEl": 2117,
      "Ġmilk": 2118,
      "ĠX": 2119,
      "owed": 2120,
      "Ġnews": 2121,
      "Ġclass": 2122,
      "fr": 2123,
      "Ġattack": 2124,
      "Ġsever": 2125,
      "ism": 2126,
      "ices": 2127,
      "acher": 2128,
      "ovember": 2129,
      "bed": 2130,
      "Ġthousand": 2131,
      "Ġlived": 2132,
      "On": 2133,
      "Ġseems": 2134,
      "ek": 2135,
      "ĠTr": 2136,
      "Ġsilver": 2137,
      "Ġjo": 2138,
      "Ġtea": 2139,
      "ĠThat": 2140,
      "Ġbag": 2141,
      "Ġphone": 2142,
      "Ġkiss": 2143,
      "raid": 2144,
      "men": 2145,
      "Ġnine": 2146,
      "Ġfavor": 2147,
      "ature": 2148,
      "Ġhit": 2149,
      "Ġheld": 2150,
      "Ġknows": 2151,
      "velop": 2152,
      "Ġdad": 2153,
      "Ġtomorrow": 2154,
      "ĠPhil": 2155,
      "AP": 2156,
      "ges": 2157,
      "Ġlaw": 2158,
      "Ġfast": 2159,
      "Ġfrog": 2160,
      "ional": 2161,
      "ĠWor": 2162,
      "Ġthinking": 2163,
      "Ġobject": 2164,
      "ium": 2165,
      "Ġseveral": 2166,
      "Ġkilled": 2167,
      "eared": 2168,
      "Ġappro": 2169,
      "Sh": 2170,
      "ued": 2171,
      "Ġ-": 2172,
      "Ġpu": 2173,
      "Ġbird": 2174,
      "US": 2175,
      "OL": 2176,
      "Ġtakes": 2177,
      "Ġz": 2178,
      "Ġyours": 2179,
      "Ġcreat": 2180,
      "ĠKing": 2181,
      "Ġseries": 2182,
      "Ġarm": 2183,
      "Ġresp": 2184,
      "alth": 2185,
      "ĠBrit": 2186,
      "Ġquiet": 2187,
      "ically": 2188,
      "ĠNo": 2189,
      "eed": 2190,
      "Because": 2191,
      "Ġmod": 2192,
      "Ġgroup": 2193,
      "Ġsurpr": 2194,
      "Ah": 2195,
      "iter": 2196,
      "Ġlangu": 2197,
      "ĠGu": 2198,
      "Ġperhaps": 2199,
      "Ġcompany": 2200,
      "itc": 2201,
      "Ġpot": 2202,
      "Ġsend": 2203,
      "arch": 2204,
      "ĠNovember": 2205,
      "Ġlovely": 2206,
      "Ġtoy": 2207,
      "ney": 2208,
      "ĠGeor": 2209,
      "min": 2210,
      "zy": 2211,
      "Al": 2212,
      "Ġblood": 2213,
      "ilt": 2214,
      "vision": 2215,
      "Ġwood": 2216,
      "Ġooh": 2217,
      "ived": 2218,
      "though": 2219,
      "Ġdress": 2220,
      "ĠOF": 2221,
      "Ġconst": 2222,
      "--\"": 2223,
      "itten": 2224,
      "iversity": 2225,
      "Ġjump": 2226,
      "ulation": 2227,
      "amer": 2228,
      "rench": 2229,
      "Ġwall": 2230,
      "ere": 2231,
      "Ġnose": 2232,
      "Ġliving": 2233,
      "Ġkept": 2234,
      "ĠMin": 2235,
      "osp": 2236,
      "singing": 2237,
      "ĠSh": 2238,
      "ician": 2239,
      "Ġsoft": 2240,
      "ello": 2241,
      "Ġcarry": 2242,
      "Ġusually": 2243,
      "Ġpar": 2244,
      "arth": 2245,
      "Ġafraid": 2246,
      "gue": 2247,
      "ility": 2248,
      "Ġwow": 2249,
      "ays": 2250,
      "stem": 2251,
      "Ġear": 2252,
      "ĠJane": 2253,
      "Ġpoints": 2254,
      "erv": 2255,
      "Ġbirthday": 2256,
      "ract": 2257,
      "Ġdaughter": 2258,
      "Ġheav": 2259,
      "ĠPl": 2260,
      "ient": 2261,
      "ĠGerman": 2262,
      "Ġuhhuh": 2263,
      "que": 2264,
      "ĠSteven": 2265,
      "Ġstep": 2266,
      "Ġcou": 2267,
      "Ġcounty": 2268,
      "co": 2269,
      "Ġfix": 2270,
      "Ġrele": 2271,
      "Ġstraight": 2272,
      "Ġnorth": 2273,
      "Ġanswer": 2274,
      "ler": 2275,
      "iff": 2276,
      "Ġsold": 2277,
      "Ġdepart": 2278,
      "ĠMaggie": 2279,
      "Ġ*": 2280,
      "Ġhist": 2281,
      "To": 2282,
      "Ġtick": 2283,
      "Ġreport": 2284,
      "ĠMc": 2285,
      "irt": 2286,
      "Ġprof": 2287,
      "overed": 2288,
      "Ġlots": 2289,
      "Ġcorn": 2290,
      "Ġann": 2291,
      "Ġrunning": 2292,
      "Ġnin": 2293,
      "Ġclear": 2294,
      "unic": 2295,
      "Ġshop": 2296,
      "mon": 2297,
      "att": 2298,
      "Ġcharac": 2299,
      "Ġmember": 2300,
      "ĠMama": 2301,
      "ĠCan": 2302,
      "ĠWorld": 2303,
      "aint": 2304,
      "Ġvocal": 2305,
      "ED": 2306,
      "Ġtrouble": 2307,
      "com": 2308,
      "Ġice": 2309,
      "ĠAN": 2310,
      "Ġain": 2311,
      "Ġwithin": 2312,
      "ause": 2313,
      "OM": 2314,
      "ctober": 2315,
      "Ġcray": 2316,
      "Ġeating": 2317,
      "ounter": 2318,
      "dden": 2319,
      "ĠCol": 2320,
      "ĠJack": 2321,
      "ĠOne": 2322,
      "ration": 2323,
      "Ġcamp": 2324,
      "Ġbegin": 2325,
      "Ġmonths": 2326,
      "Ġfield": 2327,
      "Ġseat": 2328,
      "Ġdiff": 2329,
      "Ġfur": 2330,
      "Ġbecome": 2331,
      "Please": 2332,
      "Ġhours": 2333,
      "Ġve": 2334,
      "ajor": 2335,
      "Ġcareful": 2336,
      "band": 2337,
      "Ġstood": 2338,
      "Ġworked": 2339,
      "wered": 2340,
      "âĢĶ": 2341,
      "gram": 2342,
      "ĠWhat": 2343,
      "Ġvill": 2344,
      "Ġnamed": 2345,
      "ding": 2346,
      "Ġcannot": 2347,
      "makes": 2348,
      "Ġcross": 2349,
      "Ġsudden": 2350,
      "Ġgra": 2351,
      "Ġsea": 2352,
      "Ġwhether": 2353,
      "Ġbreat": 2354,
      "ĠJuly": 2355,
      "ls": 2356,
      "Ġhung": 2357,
      "ĠApril": 2358,
      "urch": 2359,
      "ggy": 2360,
      "Ġmarried": 2361,
      "ounds": 2362,
      "Ġtired": 2363,
      "Ġwomen": 2364,
      "Ġforward": 2365,
      "Ġcried": 2366,
      "Ġring": 2367,
      "ping": 2368,
      "ĠMan": 2369,
      "Ġthrow": 2370,
      "Ġcor": 2371,
      "Ġthemselves": 2372,
      "actly": 2373,
      "Ġeverybody": 2374,
      "Ġpage": 2375,
      "Ġfit": 2376,
      "entle": 2377,
      "Ġanswered": 2378,
      "eptember": 2379,
      "Ġclothes": 2380,
      "par": 2381,
      "Ġhang": 2382,
      "ccess": 2383,
      "Ġlives": 2384,
      "Ġsuppose": 2385,
      "Ġspecial": 2386,
      "Have": 2387,
      "erc": 2388,
      "hern": 2389,
      "Ġdream": 2390,
      "ugust": 2391,
      "Ġclim": 2392,
      "Ġseem": 2393,
      "aged": 2394,
      "Ġdevelop": 2395,
      "Ġcatch": 2396,
      ",'": 2397,
      "As": 2398,
      "Ġsand": 2399,
      "Ġlow": 2400,
      "Ġton": 2401,
      "ude": 2402,
      "ĠJoe": 2403,
      "Ġpassed": 2404,
      "Ġcond": 2405,
      "Ġcomple": 2406,
      "Ġband": 2407,
      "ories": 2408,
      "ĠOctober": 2409,
      "ĠCap": 2410,
      "ored": 2411,
      "empt": 2412,
      "Ġpig": 2413,
      "Ġrain": 2414,
      "Ġeasy": 2415,
      "Ġpost": 2416,
      "ĠSIS": 2417,
      "Ġknock": 2418,
      "Ġpretend": 2419,
      "Ġfly": 2420,
      "ĠAb": 2421,
      "Ġcouple": 2422,
      "ights": 2423,
      "Ġspec": 2424,
      "ĠPaul": 2425,
      "Ġproper": 2426,
      "Ġpossible": 2427,
      "Ġfil": 2428,
      "oth": 2429,
      "ĠNorth": 2430,
      "Ġla": 2431,
      "Ġdoctor": 2432,
      "Ġbroken": 2433,
      "ouncil": 2434,
      "Ex": 2435,
      "ĠWell": 2436,
      "mother": 2437,
      "Ġill": 2438,
      "Ġegg": 2439,
      "ĠMe": 2440,
      "ĠCr": 2441,
      "Ġsystem": 2442,
      "wo": 2443,
      "Ġ.": 2444,
      "Ġfeeling": 2445,
      "Ġpleas": 2446,
      "Ġsounds": 2447,
      "Ġputting": 2448,
      "Ġdanger": 2449,
      "Ġtelevision": 2450,
      "ondon": 2451,
      "ĠAust": 2452,
      "Ġstation": 2453,
      "stairs": 2454,
      "net": 2455,
      "uk": 2456,
      "Ġnational": 2457,
      "ĠMichael": 2458,
      "Ġexper": 2459,
      "Ġpolic": 2460,
      "oops": 2461,
      "Ġdoub": 2462,
      "unity": 2463,
      "Ġcontro": 2464,
      "ĠEdna": 2465,
      "ĠPat": 2466,
      "icks": 2467,
      "Ġju": 2468,
      "Ġdiffic": 2469,
      "joy": 2470,
      "Ġcow": 2471,
      "gar": 2472,
      "Ġhors": 2473,
      "rigin": 2474,
      "ĠSeptember": 2475,
      "Ġdest": 2476,
      "Ġslow": 2477,
      "Ġord": 2478,
      "Ġarri": 2479,
      "Ġmillion": 2480,
      "Ġlikes": 2481,
      "gasps": 2482,
      "ffect": 2483,
      "Ġwindow": 2484,
      "Ġkids": 2485,
      "Of": 2486,
      "Ġpush": 2487,
      "Maybe": 2488,
      "ID": 2489,
      "One": 2490,
      "Ġabs": 2491,
      "Ġcool": 2492,
      "Ġview": 2493,
      "ogn": 2494,
      "ĠAdam": 2495,
      "Ġarms": 2496,
      "ears": 2497,
      "Ġneeds": 2498,
      "Ġdie": 2499,
      "uts": 2500,
      "ĠCal": 2501,
      "owers": 2502,
      "ĠSouth": 2503,
      "eal": 2504,
      "ĠAugust": 2505,
      "itty": 2506,
      "ager": 2507,
      "Ġdiv": 2508,
      "TH": 2509,
      "Hello": 2510,
      "more": 2511,
      "Ġcirc": 2512,
      "Ġforget": 2513,
      "ĠLondon": 2514,
      "Ġsal": 2515,
      "Ġreleased": 2516,
      "Ġ\"\"": 2517,
      "Ġgovernment": 2518,
      "Ġcause": 2519,
      "ÃŃ": 2520,
      "bs": 2521,
      "Ġhar": 2522,
      "Ġstat": 2523,
      "ances": 2524,
      "Ġwaiting": 2525,
      "over": 2526,
      "Ġgentle": 2527,
      "GH": 2528,
      "ai": 2529,
      "Ġoper": 2530,
      "Ġworry": 2531,
      "box": 2532,
      "SS": 2533,
      "Ġsupport": 2534,
      "form": 2535,
      "ox": 2536,
      "Ġabove": 2537,
      "friend": 2538,
      "ĠSw": 2539,
      "Ġmoved": 2540,
      "va": 2541,
      "Ġwhatever": 2542,
      "ked": 2543,
      "Ġnoises": 2544,
      "ĠNow": 2545,
      "Ġvar": 2546,
      "Ġhowever": 2547,
      "ode": 2548,
      "ĠGrand": 2549,
      "Ġhus": 2550,
      "ĠEur": 2551,
      "Ġking": 2552,
      "Ġoffice": 2553,
      "ĠCity": 2554,
      "rop": 2555,
      "emy": 2556,
      "..\"": 2557,
      "Ġevent": 2558,
      "ardon": 2559,
      "Ġmur": 2560,
      "igg": 2561,
      "ĠFrance": 2562,
      "Ġtonight": 2563,
      "Ġequ": 2564,
      "Ġputs": 2565,
      "cember": 2566,
      "cient": 2567,
      "Ġmiles": 2568,
      "come": 2569,
      "Ġest": 2570,
      "rod": 2571,
      "babbles": 2572,
      "Ġseason": 2573,
      "ops": 2574,
      "Ġsuccess": 2575,
      "Ġchanged": 2576,
      "Ġ.\"": 2577,
      "ĠAlex": 2578,
      "Ġorgan": 2579,
      "Ġstanding": 2580,
      "Ġrequ": 2581,
      "Every": 2582,
      "oose": 2583,
      "Ġtelling": 2584,
      "Ġtruck": 2585,
      "resent": 2586,
      "Ġforgot": 2587,
      "Ġgold": 2588,
      "oren": 2589,
      "Ġsca": 2590,
      "ĠTe": 2591,
      "Ġrecogn": 2592,
      "uced": 2593,
      "ĠAunt": 2594,
      "uce": 2595,
      "Ġperfect": 2596,
      "Ġfa": 2597,
      "Ġtowards": 2598,
      "Ġwhom": 2599,
      "ĠThom": 2600,
      "Ġshoot": 2601,
      "Ġpolice": 2602,
      "alc": 2603,
      "yl": 2604,
      "sings": 2605,
      "Ġcaught": 2606,
      "Ġ\"=": 2607,
      "urs": 2608,
      "Ġluck": 2609,
      "Ġmeant": 2610,
      "Ġshot": 2611,
      "Ġshar": 2612,
      "Any": 2613,
      "Ġeffect": 2614,
      ".\"\"": 2615,
      "Ġstru": 2616,
      "Ġbye": 2617,
      "Ġwhose": 2618,
      "ising": 2619,
      "fer": 2620,
      "Ġmist": 2621,
      "Ġnearly": 2622,
      "ceed": 2623,
      "ĠMarch": 2624,
      "terday": 2625,
      "Ġanyway": 2626,
      "Ġgod": 2627,
      "Ġenjoy": 2628,
      "Ġreturned": 2629,
      "noon": 2630,
      "Ġexcl": 2631,
      "ĠFrench": 2632,
      "mbers": 2633,
      "fast": 2634,
      "ĠCharl": 2635,
      "itchen": 2636,
      "ror": 2637,
      "amb": 2638,
      "Ġshoes": 2639,
      "Ġwritten": 2640,
      "VE": 2641,
      "ified": 2642,
      "mas": 2643,
      "ĠJune": 2644,
      "Ġow": 2645,
      "la": 2646,
      "Ġpen": 2647,
      "ffee": 2648,
      "]!\"": 2649,
      "ray": 2650,
      "Ġshut": 2651,
      "Ġcos": 2652,
      "Ġpress": 2653,
      "Ġhop": 2654,
      "Ġformer": 2655,
      "iron": 2656,
      "ĠUniversity": 2657,
      "ĠSir": 2658,
      "Ġvocalises": 2659,
      "reed": 2660,
      "Ġdirect": 2661,
      "Ġesc": 2662,
      "Ġmad": 2663,
      "Ġthirty": 2664,
      "Ġcover": 2665,
      "phone": 2666,
      "uit": 2667,
      "ĠMa": 2668,
      "ĠDo": 2669,
      "Ġorigin": 2670,
      "ĠJose": 2671,
      "Ġafternoon": 2672,
      "counter": 2673,
      "well": 2674,
      "Ġtest": 2675,
      "Ġsick": 2676,
      "Ġkitchen": 2677,
      ",--": 2678,
      "ĠWest": 2679,
      "Ġprogram": 2680,
      "Ġpract": 2681,
      "rupt": 2682,
      "tom": 2683,
      "Ġtape": 2684,
      "nded": 2685,
      "Ġfill": 2686,
      "Ġboard": 2687,
      "Ġclos": 2688,
      "that": 2689,
      "ĠDon": 2690,
      "ior": 2691,
      "ggest": 2692,
      "Ġquickly": 2693,
      "Ġlanguage": 2694,
      "Ġdet": 2695,
      "Ġsad": 2696,
      "Ġdisapp": 2697,
      "ency": 2698,
      "ĠRep": 2699,
      "ĠDecember": 2700,
      "CHILD": 2701,
      "Ġjack": 2702,
      "Ġhusband": 2703,
      "Wh": 2704,
      "Ġbroke": 2705,
      "'.\"": 2706,
      "uct": 2707,
      "Ġchick": 2708,
      "ground": 2709,
      "Ġbuilding": 2710,
      "ĠPres": 2711,
      "Ġride": 2712,
      "ience": 2713,
      "Ġturns": 2714,
      "cially": 2715,
      "Ġfellow": 2716,
      "Ġfat": 2717,
      "Ġban": 2718,
      "Ġmis": 2719,
      "Ġfear": 2720,
      "rible": 2721,
      "Ġsuggest": 2722,
      "Ġtoward": 2723,
      "Ġ=\"": 2724,
      "Ġchildes": 2725,
      "CHILDES": 2726,
      "Ġahead": 2727,
      "Ġship": 2728,
      "Ġfarm": 2729,
      "aimed": 2730,
      "Ġdeep": 2731,
      "Ġexactly": 2732,
      "Ġlonger": 2733,
      "che": 2734,
      "Ġought": 2735,
      "Ġcost": 2736,
      "ula": 2737,
      "Ġeye": 2738,
      "Ġfollowing": 2739,
      "Ġdrive": 2740,
      "ĠBritish": 2741,
      "arden": 2742,
      "AM": 2743,
      "OW": 2744,
      "ĠSe": 2745,
      "Ġposition": 2746,
      "lo": 2747,
      "ĠNational": 2748,
      "yn": 2749,
      "Ġcharacter": 2750,
      "Ġ\"(": 2751,
      "Ġisland": 2752,
      "Ġexcept": 2753,
      "Ġfort": 2754,
      "ĠRos": 2755,
      "oop": 2756,
      "Ġreplied": 2757,
      "ĠThomas": 2758,
      "view": 2759,
      "Ġinstead": 2760,
      "See": 2761,
      "Ġav": 2762,
      "Ġsight": 2763,
      "Ġmembers": 2764,
      "ĠDan": 2765,
      "Ġsafe": 2766,
      "Ġpopulation": 2767,
      "ĠDr": 2768,
      "Ġprop": 2769,
      "ĠMy": 2770,
      "Ġvisit": 2771,
      "Ġfigure": 2772,
      "Ġevening": 2773,
      "Ġsave": 2774,
      "reek": 2775,
      "Ġpublic": 2776,
      "Ġdepartment": 2777,
      "Ġanyone": 2778,
      "Ġfinish": 2779,
      "Ġtot": 2780,
      "Ġlie": 2781,
      "Ġdem": 2782,
      "con": 2783,
      "oles": 2784,
      "Ġcommon": 2785,
      "Ġtow": 2786,
      "Ġwild": 2787,
      "Ġhaha": 2788,
      "Ġhappens": 2789,
      "Ġmonkey": 2790,
      "Ġparent": 2791,
      "Ġyesterday": 2792,
      "Ġwrote": 2793,
      "Ġspend": 2794,
      "Ġworth": 2795,
      "ighb": 2796,
      "Ġcast": 2797,
      "Ġsuper": 2798,
      "uthor": 2799,
      "ti": 2800,
      "uation": 2801,
      "Ġmiddle": 2802,
      "AL": 2803,
      "Hi": 2804,
      "nes": 2805,
      "what": 2806,
      "Ġstuck": 2807,
      "ĠSome": 2808,
      "Ġwhis": 2809,
      "ift": 2810,
      "Ġeh": 2811,
      "ĠPol": 2812,
      "ĠGo": 2813,
      "Ġprotect": 2814,
      "Ġdi": 2815,
      "Ġcoffee": 2816,
      "Ġcurrent": 2817,
      "Ġtem": 2818,
      "Ġru": 2819,
      "ĠBy": 2820,
      "Ġpieces": 2821,
      "Ġdecided": 2822,
      "OK": 2823,
      "idence": 2824,
      "ffic": 2825,
      "ĠFrank": 2826,
      "Ġinterested": 2827,
      "ospital": 2828,
      "COL": 2829,
      "Ġcamer": 2830,
      "ĠComm": 2831,
      "hel": 2832,
      "ums": 2833,
      "Ġbutter": 2834,
      "hile": 2835,
      "ĠBrad": 2836,
      "acy": 2837,
      "time": 2838,
      "night": 2839,
      "Ġ?\"": 2840,
      "Ġmount": 2841,
      "ĠJe": 2842,
      "ians": 2843,
      "ĠEngland": 2844,
      "ELS": 2845,
      "Ġsus": 2846,
      "Ġbow": 2847,
      "Ġgiving": 2848,
      "ichard": 2849,
      "ron": 2850,
      "Ġmeeting": 2851,
      "Ġjuice": 2852,
      "gest": 2853,
      "Ġplaces": 2854,
      "Ġbuilt": 2855,
      "Ġservice": 2856,
      "ege": 2857,
      "Ġheavy": 2858,
      "sc": 2859,
      "Ġgames": 2860,
      "Ġang": 2861,
      "Ġsupposed": 2862,
      "ĠAm": 2863,
      "ology": 2864,
      "Ġlearn": 2865,
      "iod": 2866,
      "Ġbes": 2867,
      "eddy": 2868,
      "Ġiss": 2869,
      "Ġusing": 2870,
      "Ġdoubt": 2871,
      "rs": 2872,
      "Ġtreat": 2873,
      "tered": 2874,
      "ĠEve": 2875,
      "Ġteacher": 2876,
      "Ġburn": 2877,
      "Ġsilence": 2878,
      "Ġcomplete": 2879,
      "bert": 2880,
      "Ġfollowed": 2881,
      "Ġdam": 2882,
      "Ġrad": 2883,
      "APTER": 2884,
      "ĠCaptain": 2885,
      "orence": 2886,
      "eally": 2887,
      "Sorry": 2888,
      "iling": 2889,
      "Ġswim": 2890,
      "Ġfavorite": 2891,
      "Ġtrust": 2892,
      "ushed": 2893,
      "ĠJoseph": 2894,
      "At": 2895,
      "IC": 2896,
      "note": 2897,
      "olute": 2898,
      "Ġstri": 2899,
      "ott": 2900,
      "Ġthird": 2901,
      "Ġreached": 2902,
      "itted": 2903,
      "Ġopened": 2904,
      "Thanks": 2905,
      "ĠCHAPTER": 2906,
      "ishing": 2907,
      "Ġlegs": 2908,
      "Ġpolitician": 2909,
      "An": 2910,
      "Ġsilly": 2911,
      "Ġbas": 2912,
      "ĠWith": 2913,
      "ĠEurope": 2914,
      "Ġfail": 2915,
      "Ġsomewhere": 2916,
      "king": 2917,
      "Ġcop": 2918,
      "Ġpardon": 2919,
      "Ġgrow": 2920,
      "Ġcertainly": 2921,
      "Ġval": 2922,
      "Ġstopped": 2923,
      "Ġsnow": 2924,
      "Ġstore": 2925,
      "Ġappear": 2926,
      "Ġanimal": 2927,
      "Ġbreakfast": 2928,
      "Ġtur": 2929,
      "Ġclub": 2930,
      "Ġquar": 2931,
      "Some": 2932,
      "oul": 2933,
      "iny": 2934,
      "unicip": 2935,
      "Ġbelong": 2936,
      "ĠFlorence": 2937,
      "Foot": 2938,
      "cent": 2939,
      "ips": 2940,
      "Ġpack": 2941,
      "bur": 2942,
      "ging": 2943,
      "Ġled": 2944,
      "Ġindeed": 2945,
      "iled": 2946,
      "erry": 2947,
      "Ġshout": 2948,
      "Ġmam": 2949,
      "Ġlunch": 2950,
      "Ġletters": 2951,
      "Ġblow": 2952,
      "Ġprofess": 2953,
      "Uh": 2954,
      "de": 2955,
      "whis": 2956,
      "Ġconsider": 2957,
      "Ġgeneral": 2958,
      "Ġcomfort": 2959,
      "Ġresult": 2960,
      "Ġstreet": 2961,
      "Ġmatch": 2962,
      "Ġbought": 2963,
      "Ġcrayon": 2964,
      "Ġsingle": 2965,
      "iles": 2966,
      "Ġlevel": 2967,
      "Ġmajor": 2968,
      "ills": 2969,
      "AND": 2970,
      "Ġsecret": 2971,
      "Ġpresident": 2972,
      "Ġinform": 2973,
      "Or": 2974,
      "Ġneck": 2975,
      "Ġleaving": 2976,
      "Ġlocal": 2977,
      "ĠSha": 2978,
      "ĠPar": 2979,
      "Ġstrange": 2980,
      "Ġaccount": 2981,
      "Ġreceived": 2982,
      "Ġworks": 2983,
      "aves": 2984,
      "ĠWh": 2985,
      "Ġwatches": 2986,
      "eder": 2987,
      "ĠRichard": 2988,
      "ĠJim": 2989,
      "Ġholds": 2990,
      "Ġregion": 2991,
      "onel": 2992,
      "Ġweeks": 2993,
      "mpions": 2994,
      "Ġbull": 2995,
      "Ġdep": 2996,
      "Really": 2997,
      "rit": 2998,
      "Ġremark": 2999,
      "Ġdifficult": 3000,
      "Ġcamera": 3001,
      "Ġcre": 3002,
      "Ġperiod": 3003,
      "ternational": 3004,
      "ĠGeorge": 3005,
      "Ġalthough": 3006,
      "Ġadm": 3007,
      "Ġeveryone": 3008,
      "Footnote": 3009,
      "Ġpark": 3010,
      "ĠMum": 3011,
      "Ġsense": 3012,
      "phan": 3013,
      "omin": 3014,
      "ĠTo": 3015,
      "Ġdecl": 3016,
      "Ġexample": 3017,
      "Ġce": 3018,
      "Ġmaster": 3019,
      "Ġsol": 3020,
      "Ġwarm": 3021,
      "Ġmention": 3022,
      "Ġreach": 3023,
      "Ġkick": 3024,
      "Fr": 3025,
      "Ġcareer": 3026,
      "Ġut": 3027,
      "ĠOr": 3028,
      "go": 3029,
      "Ġbottom": 3030,
      "Ġdry": 3031,
      "ĠJwww": 3032,
      "ino": 3033,
      "Ġlift": 3034,
      "isc": 3035,
      "Ġapart": 3036,
      "ĠWilliam": 3037,
      "rie": 3038,
      "Ġaccept": 3039,
      "Ġcrying": 3040,
      "how": 3041,
      "iday": 3042,
      "Ġdefe": 3043,
      "bl": 3044,
      "Ġleaves": 3045,
      "Ġrub": 3046,
      "ille": 3047,
      "Ġfinger": 3048,
      "bers": 3049,
      "work": 3050,
      "Ġbang": 3051,
      "Ġemp": 3052,
      "alm": 3053,
      "Ġbrown": 3054,
      "Ġexpress": 3055,
      "Ġhoney": 3056,
      "Ġcand": 3057,
      "Ġorange": 3058,
      "Ġhuman": 3059,
      "Ġvillage": 3060,
      "Ġfifty": 3061,
      "JW": 3062,
      "With": 3063,
      "ĠLea": 3064,
      "Ġmoving": 3065,
      "Ġcake": 3066,
      "Ġlim": 3067,
      "Ġwash": 3068,
      "Ġcompan": 3069,
      "NA": 3070,
      "cket": 3071,
      "ĠAND": 3072,
      "Ġbright": 3073,
      "ĠPresident": 3074,
      "Ġdescri": 3075,
      "Ġbread": 3076,
      "Ġsuddenly": 3077,
      "Wait": 3078,
      "ĠThese": 3079,
      "ograp": 3080,
      "ancy": 3081,
      "bing": 3082,
      "nel": 3083,
      "Ġappeared": 3084,
      "Ġhospital": 3085,
      "ization": 3086,
      "Ġhungry": 3087,
      "ya": 3088,
      "ĠEm": 3089,
      "Ġanybody": 3090,
      "Ġhistory": 3091,
      "ET": 3092,
      "wh": 3093,
      "Ġhig": 3094,
      "Ġvide": 3095,
      "pecially": 3096,
      "Ġincluding": 3097,
      "aff": 3098,
      "Ġlab": 3099,
      "acing": 3100,
      "Ġwatching": 3101,
      "Ġalb": 3102,
      "Ġspoke": 3103,
      "Ġglass": 3104,
      "Ġelect": 3105,
      "Ġcrazy": 3106,
      "like": 3107,
      "ils": 3108,
      "Ġdev": 3109,
      "Ġcarried": 3110,
      "UNK": 3111,
      "resh": 3112,
      "Ġauthor": 3113,
      "Ġmunicip": 3114,
      "Ġengine": 3115,
      "Ġsummer": 3116,
      "AY": 3117,
      "fl": 3118,
      "ĠAg": 3119,
      "elen": 3120,
      "Ġprison": 3121,
      "ĠRoy": 3122,
      "Ġhasn": 3123,
      "Ġallowed": 3124,
      "ĠEll": 3125,
      "Ġdesign": 3126,
      "Ġtruth": 3127,
      "ording": 3128,
      "Ġbusy": 3129,
      "Ġfurther": 3130,
      "Ġloc": 3131,
      "Ġcompet": 3132,
      "oman": 3133,
      "nect": 3134,
      "ida": 3135,
      "iforn": 3136,
      "ĠINV": 3137,
      "Ġprin": 3138,
      "Ġimag": 3139,
      "Tell": 3140,
      "Ġcab": 3141,
      "roy": 3142,
      "Ġtast": 3143,
      "ĠIT": 3144,
      "ĠCent": 3145,
      "Ġanymore": 3146,
      "Ġclever": 3147,
      "Ġlaughs": 3148,
      "_,": 3149,
      "Ġbased": 3150,
      "Ġincre": 3151,
      "Ġnorm": 3152,
      "Ġvol": 3153,
      "orts": 3154,
      "Ġsmell": 3155,
      "ĠChristmas": 3156,
      "Take": 3157,
      "Ġ$": 3158,
      "Ġbank": 3159,
      "ĠAmy": 3160,
      "ĠDor": 3161,
      "Ġuhoh": 3162,
      "Ġtype": 3163,
      "estern": 3164,
      "ales": 3165,
      "Ġslight": 3166,
      "isten": 3167,
      "Ġspot": 3168,
      "Ġnecess": 3169,
      "asket": 3170,
      "Ġgen": 3171,
      "ĠSm": 3172,
      "ĠItal": 3173,
      "ifornia": 3174,
      "Ġbud": 3175,
      "Ġself": 3176,
      "Ġspir": 3177,
      "Ġhorses": 3178,
      "Ġgall": 3179,
      "Ġbabies": 3180,
      "Ġwand": 3181,
      "Ġoo": 3182,
      "Ġhealth": 3183,
      "Ġneighb": 3184,
      "nie": 3185,
      "Ġyep": 3186,
      "ris": 3187,
      "Ġgarden": 3188,
      "chn": 3189,
      "ĠPer": 3190,
      "ĠAmerica": 3191,
      "Ġcapital": 3192,
      "Ġbreath": 3193,
      "Ġexclaimed": 3194,
      "vol": 3195,
      "ourn": 3196,
      "ission": 3197,
      "Ġadded": 3198,
      "Ġwriting": 3199,
      "Ġtrees": 3200,
      "ĠPeter": 3201,
      "ĠRuss": 3202,
      "Ġaccident": 3203,
      "Ġthanks": 3204,
      "Ġinvol": 3205,
      "Ġitself": 3206,
      "pes": 3207,
      "Ġgas": 3208,
      "Ġnames": 3209,
      "Ġlock": 3210,
      "ilar": 3211,
      "Ġsouth": 3212,
      "ĠJames": 3213,
      "Ġbra": 3214,
      "ĠCalifornia": 3215,
      "rel": 3216,
      "Ġattention": 3217,
      "Ġcorner": 3218,
      "Ch": 3219,
      "vin": 3220,
      "Ġwet": 3221,
      "Ġdance": 3222,
      "uty": 3223,
      "ĠGreat": 3224,
      "ĠAustral": 3225,
      "Ġsell": 3226,
      "ĠDad": 3227,
      "Ġshouldn": 3228,
      "Ġwalking": 3229,
      "Ġver": 3230,
      "Ġpink": 3231,
      "ashing": 3232,
      "Ġdistance": 3233,
      "Stop": 3234,
      "off": 3235,
      "ining": 3236,
      "Ġcompl": 3237,
      "ĠAlexander": 3238,
      "Ġtail": 3239,
      "iced": 3240,
      "Ġparents": 3241,
      "lect": 3242,
      "Ġplayer": 3243,
      "Ġholding": 3244,
      "Ġpuzz": 3245,
      "Ġbeginning": 3246,
      "Ġpause": 3247,
      "unny": 3248,
      "Ġvict": 3249,
      "Ġ\"âĢĵ": 3250,
      "ĠBRO": 3251,
      "Ġliked": 3252,
      "ribut": 3253,
      "cious": 3254,
      "ĠSu": 3255,
      "astic": 3256,
      "Ġhall": 3257,
      "aper": 3258,
      "Ġdropped": 3259,
      "----------------": 3260,
      "mo": 3261,
      "Ġfeed": 3262,
      "Ġblocks": 3263,
      "Ġhun": 3264,
      "Ġcapt": 3265,
      "Ġcollect": 3266,
      "Ġspace": 3267,
      "Ġtrack": 3268,
      "Ġsubject": 3269,
      "Ġcontinued": 3270,
      "ĠSec": 3271,
      "ĠUncle": 3272,
      "Ġshowed": 3273,
      "\")": 3274,
      "Ġcream": 3275,
      "Ġattempt": 3276,
      "Ġeduc": 3277,
      "ien": 3278,
      "Ġhole": 3279,
      "Ġnatur": 3280,
      "Ġquestions": 3281,
      "IR": 3282,
      "Ġrespect": 3283,
      "Ġchicken": 3284,
      "por": 3285,
      "Ġfut": 3286,
      "Ġnone": 3287,
      "ipe": 3288,
      "Ġbeat": 3289,
      "elve": 3290,
      "ply": 3291,
      "Ġtor": 3292,
      "Ġgar": 3293,
      "Ġsex": 3294,
      "Ġsituation": 3295,
      "board": 3296,
      "THE": 3297,
      "Ġdanc": 3298,
      "ases": 3299,
      "Ġhide": 3300,
      "Ġ(\"": 3301,
      "Ġrepresent": 3302,
      "af": 3303,
      "iol": 3304,
      "ĠHall": 3305,
      "ĠNot": 3306,
      "Ġloved": 3307,
      "Ġfucking": 3308,
      "ference": 3309,
      "ĠHouse": 3310,
      "ume": 3311,
      "arty": 3312,
      "dd": 3313,
      "Ġchief": 3314,
      "Ġchurch": 3315,
      "viously": 3316,
      "Ġhous": 3317,
      "Ġearth": 3318,
      "ades": 3319,
      "Ġcheese": 3320,
      "itive": 3321,
      "Ġdelight": 3322,
      "Ġcontrol": 3323,
      "ĠHist": 3324,
      "ument": 3325,
      "UT": 3326,
      "Ġweren": 3327,
      "ĠEx": 3328,
      "Ġslowly": 3329,
      "ĠMark": 3330,
      "aug": 3331,
      "ensus": 3332,
      "atch": 3333,
      "add": 3334,
      "ĠMon": 3335,
      "ĠRiver": 3336,
      "Ġloud": 3337,
      "Ġhast": 3338,
      "ĠMary": 3339,
      "ength": 3340,
      "Ġbottle": 3341,
      "aud": 3342,
      "Ġdrop": 3343,
      "CK": 3344,
      "wood": 3345,
      "iger": 3346,
      "Ġcommand": 3347,
      "Like": 3348,
      "Ġlose": 3349,
      "cries": 3350,
      "ires": 3351,
      "Ġteeth": 3352,
      "aps": 3353,
      "Ġteddy": 3354,
      "Ġlaughing": 3355,
      "itz": 3356,
      "Ġport": 3357,
      "Ġproblems": 3358,
      "illa": 3359,
      "cell": 3360,
      "Ġrole": 3361,
      "Ġinteresting": 3362,
      "Ġmach": 3363,
      "Ġrid": 3364,
      "Ġrul": 3365,
      "sey": 3366,
      "ĠSam": 3367,
      "Ġseeing": 3368,
      "Ġflowers": 3369,
      "Ġfingers": 3370,
      "iant": 3371,
      "ky": 3372,
      "aining": 3373,
      "Ġspl": 3374,
      "Ġcharge": 3375,
      "Me": 3376,
      "cuse": 3377,
      "now": 3378,
      "Ġma": 3379,
      "Ġcrow": 3380,
      "Ġdollars": 3381,
      "hood": 3382,
      "Ġeff": 3383,
      "aker": 3384,
      "olutely": 3385,
      "isted": 3386,
      "mm": 3387,
      "omes": 3388,
      "Ġye": 3389,
      "Ġshare": 3390,
      "Ġcommune": 3391,
      "ounced": 3392,
      "Ġreading": 3393,
      "Ġfuture": 3394,
      "Ġnor": 3395,
      "omer": 3396,
      "Ġactiv": 3397,
      "ĠFrom": 3398,
      "Ġcircle": 3399,
      "Ġpaid": 3400,
      "Ġforce": 3401,
      "Ġanx": 3402,
      "Ġentire": 3403,
      "Ġvideo": 3404,
      "esus": 3405,
      "Ġstarts": 3406,
      "Ġeggs": 3407,
      "Ġbene": 3408,
      "Ġregard": 3409,
      "iot": 3410,
      "yond": 3411,
      "inite": 3412,
      "Ġcomb": 3413,
      "Ġcars": 3414,
      "rug": 3415,
      "Ġpriv": 3416,
      "house": 3417,
      "Ġjud": 3418,
      "clock": 3419,
      "Ġsinging": 3420,
      "Ġinformation": 3421,
      "Listen": 3422,
      "Ġsna": 3423,
      "Ġmum": 3424,
      "lymp": 3425,
      "play": 3426,
      "Ġwide": 3427,
      "ran": 3428,
      "het": 3429,
      "ili": 3430,
      "riage": 3431,
      "Ġmovies": 3432,
      "Ġhate": 3433,
      ".--": 3434,
      "Ġgives": 3435,
      "Ġshit": 3436,
      "Ġhost": 3437,
      "ĠLuc": 3438,
      "Ġneeded": 3439,
      "cture": 3440,
      "ĠLou": 3441,
      "Ġolder": 3442,
      "Ġwalked": 3443,
      "iers": 3444,
      "Ġ...": 3445,
      "Ġtall": 3446,
      "Ġnobody": 3447,
      "ĠDada": 3448,
      "Ġbridge": 3449,
      "Ġserious": 3450,
      "hold": 3451,
      "west": 3452,
      "Ġ]": 3453,
      "Ġlying": 3454,
      "Ġshows": 3455,
      "ĠIsland": 3456,
      "ELL": 3457,
      "atives": 3458,
      "Ġwonderful": 3459,
      "Ġextra": 3460,
      "Ġgoin": 3461,
      "rene": 3462,
      "Ġdirection": 3463,
      "Ġaut": 3464,
      "ination": 3465,
      "Ġsmile": 3466,
      "rang": 3467,
      "ston": 3468,
      "aret": 3469,
      "Ġscar": 3470,
      "Will": 3471,
      "str": 3472,
      "Ġuncle": 3473,
      "Ġconcern": 3474,
      "ads": 3475,
      "pered": 3476,
      "Ġsepar": 3477,
      "Ġterm": 3478,
      "Ġpictures": 3479,
      "Give": 3480,
      "Sure": 3481,
      "Ġcard": 3482,
      "Ġwel": 3483,
      "Ġrab": 3484,
      "ĠSund": 3485,
      "ĠCo": 3486,
      "ounded": 3487,
      "ploy": 3488,
      "Ġcreated": 3489,
      "gon": 3490,
      "Ġvers": 3491,
      "Ġmem": 3492,
      "ĠFred": 3493,
      "ĠOlymp": 3494,
      "Ġespecially": 3495,
      "lu": 3496,
      "ala": 3497,
      "Ġproject": 3498,
      "Ġplays": 3499,
      "ption": 3500,
      "Ġhandle": 3501,
      "Ġelephan": 3502,
      "Ġtowel": 3503,
      "Ġlength": 3504,
      "icro": 3505,
      "ggie": 3506,
      "EC": 3507,
      "Ġmass": 3508,
      "Ġpicked": 3509,
      "Ġoccas": 3510,
      "Ġalbum": 3511,
      "ĠMart": 3512,
      "Ġtwelve": 3513,
      "she": 3514,
      "Ġep": 3515,
      "ĠCup": 3516,
      "ĠIndia": 3517,
      "isy": 3518,
      "ĠFAT": 3519,
      "Ġspell": 3520,
      "Ġdrawing": 3521,
      "Ġpurple": 3522,
      "kin": 3523,
      "val": 3524,
      "ĠAir": 3525,
      "ession": 3526,
      "Ġsimilar": 3527,
      "Ġgrass": 3528,
      "medi": 3529,
      "ography": 3530,
      "MY": 3531,
      "Ġconvers": 3532,
      "Ġbigger": 3533,
      "ĠPeggy": 3534,
      "bout": 3535,
      "ites": 3536,
      "ĠIts": 3537,
      "Ġears": 3538,
      "Ġearl": 3539,
      "ico": 3540,
      "....": 3541,
      "Ġpers": 3542,
      "ĠMex": 3543,
      "Ġcomput": 3544,
      "Ġdue": 3545,
      "rian": 3546,
      "raft": 3547,
      "ĠState": 3548,
      "Ġpopular": 3549,
      "ees": 3550,
      "ius": 3551,
      "ĠSchool": 3552,
      "ĠHowever": 3553,
      "Ġet": 3554,
      "ĠON": 3555,
      "Ġcrack": 3556,
      "Ġpicks": 3557,
      "face": 3558,
      "Ġwag": 3559,
      "Ġhy": 3560,
      "soci": 3561,
      "Ġspecies": 3562,
      "Ġnaught": 3563,
      "ashed": 3564,
      "Ġterrible": 3565,
      "uction": 3566,
      "Ġrepe": 3567,
      "ĠRob": 3568,
      "Ġparticular": 3569,
      "Ġamount": 3570,
      "Ġdirty": 3571,
      "atter": 3572,
      "irm": 3573,
      "ĠNe": 3574,
      "Ġtalked": 3575,
      "Ġaccom": 3576,
      "itary": 3577,
      "ĠHelen": 3578,
      "itions": 3579,
      "ĠGerva": 3580,
      "Ġinvest": 3581,
      "Ġcentury": 3582,
      ".]": 3583,
      "Ġmix": 3584,
      "ĠMus": 3585,
      "Ġpocket": 3586,
      "Ġdiscuss": 3587,
      "erve": 3588,
      "elly": 3589,
      "ĠLord": 3590,
      "Ġexcuse": 3591,
      "Ġparts": 3592,
      "Ġsurprise": 3593,
      "Ġbasket": 3594,
      "Ġviol": 3595,
      "Ġactor": 3596,
      "Ġturning": 3597,
      "Ġdate": 3598,
      "Ġstars": 3599,
      "Does": 3600,
      "cher": 3601,
      "uge": 3602,
      "cks": 3603,
      "ĠJapanese": 3604,
      "ĠLeague": 3605,
      "ĠJust": 3606,
      "Ġinterrupt": 3607,
      "chan": 3608,
      "Ġ\"#": 3609,
      "Ġsle": 3610,
      "Ġboo": 3611,
      "ĠTex": 3612,
      "Ġspent": 3613,
      "ĠAnne": 3614,
      "ĠGervaise": 3615,
      "dom": 3616,
      "Ġpounds": 3617,
      "Ġprep": 3618,
      "uel": 3619,
      "za": 3620,
      "Ġris": 3621,
      "Ġspoon": 3622,
      "Ġarmy": 3623,
      "ka": 3624,
      "inary": 3625,
      "Ġclosed": 3626,
      "Ġobs": 3627,
      "ipped": 3628,
      "look": 3629,
      "Ġbackground": 3630,
      "Ġblank": 3631,
      "Ġkey": 3632,
      "llust": 3633,
      "Ġmanner": 3634,
      "ĠSer": 3635,
      "ppy": 3636,
      "Ġworse": 3637,
      "Ġasking": 3638,
      "Ġdifference": 3639,
      "Ġcaused": 3640,
      "Ġsky": 3641,
      "Ġsquare": 3642,
      "ĠQue": 3643,
      "lin": 3644,
      "pose": 3645,
      "Ġcouncil": 3646,
      "asc": 3647,
      "ural": 3648,
      "ival": 3649,
      "Nothing": 3650,
      "ato": 3651,
      "antly": 3652,
      "Ġbelow": 3653,
      "Ġdirected": 3654,
      "ĠBro": 3655,
      "uckles": 3656,
      "Which": 3657,
      "isf": 3658,
      "Ġcourt": 3659,
      "Ġsettle": 3660,
      "aturday": 3661,
      "ALL": 3662,
      "Would": 3663,
      "aven": 3664,
      "amund": 3665,
      "Ġalive": 3666,
      "set": 3667,
      "inc": 3668,
      "Ġfresh": 3669,
      "Ġhol": 3670,
      "raph": 3671,
      "Ġpromise": 3672,
      "ĠRepubl": 3673,
      "ament": 3674,
      "ĠCharlie": 3675,
      "Ġden": 3676,
      "Ġfinally": 3677,
      "Ġmunicipality": 3678,
      "ĠHistory": 3679,
      "Ġtit": 3680,
      "ĠST": 3681,
      "ĠBill": 3682,
      "ugg": 3683,
      "Ġhiding": 3684,
      "ably": 3685,
      "ously": 3686,
      "ĠRosamund": 3687,
      "Ġlion": 3688,
      "ĠMad": 3689,
      "Ġrespons": 3690,
      "Ġupstairs": 3691,
      "osaur": 3692,
      "bye": 3693,
      "Ġcrowd": 3694,
      "ĠGl": 3695,
      "Ġconnect": 3696,
      "eneral": 3697,
      "Ġfle": 3698,
      "Ġasleep": 3699,
      "Ġraised": 3700,
      "Ġninet": 3701,
      "arr": 3702,
      "ĠMat": 3703,
      "Ġhelped": 3704,
      "Ġrefer": 3705,
      "bes": 3706,
      "Ġbeyond": 3707,
      "roat": 3708,
      "Ġstage": 3709,
      "Ġstren": 3710,
      "ĠAc": 3711,
      "ems": 3712,
      "ĠUS": 3713,
      "Ġpolicy": 3714,
      "vious": 3715,
      "ruction": 3716,
      "upid": 3717,
      "Ġhurry": 3718,
      "Ġoppos": 3719,
      "Ġjoined": 3720,
      "Ġwha": 3721,
      "Ġfool": 3722,
      "ushing": 3723,
      "ĠSar": 3724,
      "Ġaff": 3725,
      "Ġapple": 3726,
      "mit": 3727,
      "oming": 3728,
      "Ġbrief": 3729,
      "ĠRober": 3730,
      "Ġmanage": 3731,
      "Ġcoat": 3732,
      "pend": 3733,
      "conom": 3734,
      "Ġdeter": 3735,
      "ighs": 3736,
      "IGH": 3737,
      "ĠJones": 3738,
      "._": 3739,
      "ij": 3740,
      "wise": 3741,
      "ville": 3742,
      "yer": 3743,
      "asp": 3744,
      "ĠDem": 3745,
      "ĠHarry": 3746,
      "Ġnaughty": 3747,
      "Un": 3748,
      "Ġcovered": 3749,
      "pping": 3750,
      "Ġspring": 3751,
      "field": 3752,
      "lla": 3753,
      "ĠGood": 3754,
      "Ġimmedi": 3755,
      "Ġcommunity": 3756,
      "ĠSunday": 3757,
      "zen": 3758,
      "Ġtechn": 3759,
      "Ġmagnet": 3760,
      "pers": 3761,
      "Ġpenc": 3762,
      "olf": 3763,
      "Ġphot": 3764,
      "Ġdestroy": 3765,
      "inct": 3766,
      "outhern": 3767,
      "Ġwhoops": 3768,
      "Ġpossib": 3769,
      "ki": 3770,
      "aded": 3771,
      "Ġcrit": 3772,
      "azing": 3773,
      "rey": 3774,
      "hal": 3775,
      "Ġfre": 3776,
      "Ġpal": 3777,
      "Ġthreat": 3778,
      "ĠDist": 3779,
      "ett": 3780,
      "Ġintrod": 3781,
      "Ġprocess": 3782,
      "laughing": 3783,
      "Ġinclude": 3784,
      "Ġlikely": 3785,
      "ĠTHAT": 3786,
      "ĠTur": 3787,
      "Ġagree": 3788,
      "Ġarrest": 3789,
      "ivil": 3790,
      "Ġnumbers": 3791,
      "Ġgrew": 3792,
      "Ġgate": 3793,
      "Ġrese": 3794,
      "oph": 3795,
      "Ġscared": 3796,
      "kn": 3797,
      "hire": 3798,
      "Ġspeed": 3799,
      "worth": 3800,
      "ĠColl": 3801,
      "ittee": 3802,
      "ĠKe": 3803,
      "ĠTexas": 3804,
      "Ġskin": 3805,
      "Excuse": 3806,
      "Ġstreng": 3807,
      "Ġdrew": 3808,
      "ids": 3809,
      "Ġrace": 3810,
      "ĠCarl": 3811,
      "oved": 3812,
      "ĠGovern": 3813,
      "vocal": 3814,
      "Ġ,": 3815,
      "Ġfright": 3816,
      "Ġthinks": 3817,
      "Ġdriving": 3818,
      "Ġsheep": 3819,
      "orthern": 3820,
      "oughs": 3821,
      "brother": 3822,
      "ners": 3823,
      "Ġcensus": 3824,
      "ago": 3825,
      "Ġfamous": 3826,
      "Ġpleasure": 3827,
      "ĠHen": 3828,
      "ĠWind": 3829,
      "yle": 3830,
      "Ġwest": 3831,
      "Ġfem": 3832,
      "iment": 3833,
      "ĠMarie": 3834,
      "Ġsandw": 3835,
      "Ġho": 3836,
      "lden": 3837,
      "alt": 3838,
      "chie": 3839,
      "Ġspeaking": 3840,
      "ĠSan": 3841,
      "Ġmeat": 3842,
      "Ġneedta": 3843,
      "ashion": 3844,
      "ĠQu": 3845,
      "light": 3846,
      "Ġcru": 3847,
      "Ġlines": 3848,
      "ĠIndians": 3849,
      "Ġbirds": 3850,
      "ST": 3851,
      "itor": 3852,
      "Ġnur": 3853,
      "othy": 3854,
      "Ġrap": 3855,
      "ĠSaturday": 3856,
      "ĠPark": 3857,
      "Ġtotal": 3858,
      "VER": 3859,
      "Ġsens": 3860,
      "Ġairport": 3861,
      "Ġnatural": 3862,
      "Ġwa": 3863,
      "Ġhero": 3864,
      "Ġperform": 3865,
      "Ġcaptain": 3866,
      "Ġmissing": 3867,
      "!'": 3868,
      "Ke": 3869,
      "Mhm": 3870,
      "Per": 3871,
      "Ġwake": 3872,
      "ĠIrene": 3873,
      "Ġweap": 3874,
      "Ġelection": 3875,
      "Ġsleeping": 3876,
      "Ġbattle": 3877,
      "ingly": 3878,
      "Ġeast": 3879,
      "Ġswing": 3880,
      "Ġbroad": 3881,
      "Ġsatisf": 3882,
      "Ġur": 3883,
      "Ġrough": 3884,
      "ĠFather": 3885,
      "Ġplane": 3886,
      "Ġflat": 3887,
      "ĠEast": 3888,
      "ivid": 3889,
      "Ġcalling": 3890,
      "erved": 3891,
      "Ġtries": 3892,
      "cer": 3893,
      "under": 3894,
      "rect": 3895,
      "Ġinn": 3896,
      "ĠNor": 3897,
      "FRI": 3898,
      "HH": 3899,
      "anny": 3900,
      "Ġthrew": 3901,
      "Ġstream": 3902,
      "cience": 3903,
      "Ġsimply": 3904,
      "Ġprovince": 3905,
      "Ġvarious": 3906,
      "line": 3907,
      "reme": 3908,
      "ademy": 3909,
      "ĠBur": 3910,
      "Ġgrad": 3911,
      "LA": 3912,
      "Ġ&": 3913,
      "Ġoops": 3914,
      "vey": 3915,
      "Ġund": 3916,
      "Ġattend": 3917,
      "Ġident": 3918,
      "Ġbeha": 3919,
      "Ġbell": 3920,
      "ĠBat": 3921,
      "ĠGra": 3922,
      "Ġsett": 3923,
      "Ġsize": 3924,
      "Ġarrived": 3925,
      "sp": 3926,
      "ests": 3927,
      "ĠChristian": 3928,
      "ables": 3929,
      "Ġways": 3930,
      "Ġterms": 3931,
      "Ġsteps": 3932,
      "initely": 3933,
      "Very": 3934,
      "Ġfol": 3935,
      "Ġstories": 3936,
      "ĠSch": 3937,
      "antic": 3938,
      "ĠLady": 3939,
      "Ġanywhere": 3940,
      "ĠAnge": 3941,
      "Ġjoin": 3942,
      "Was": 3943,
      "Ġstupid": 3944,
      "ongress": 3945,
      "ĠSteve": 3946,
      "Somet": 3947,
      "ini": 3948,
      "ences": 3949,
      "Ġemb": 3950,
      "olm": 3951,
      "Ġgoodness": 3952,
      "Ġofficer": 3953,
      "Ġneg": 3954,
      "ocol": 3955,
      "Ġcust": 3956,
      "uses": 3957,
      "aching": 3958,
      "Ġforth": 3959,
      "Ġformed": 3960,
      "ĠMac": 3961,
      "Ġserved": 3962,
      "ĠChampions": 3963,
      "Ġbuck": 3964,
      "atic": 3965,
      "Ġended": 3966,
      "lt": 3967,
      "asure": 3968,
      "asons": 3969,
      "Ġwheel": 3970,
      "Ġmostly": 3971,
      "Ġlargest": 3972,
      "sy": 3973,
      "Ġangry": 3974,
      "MU": 3975,
      "ially": 3976,
      "kiss": 3977,
      "rain": 3978,
      "sn": 3979,
      "Ġtou": 3980,
      "ĠBE": 3981,
      "ĠParty": 3982,
      "ĠDuring": 3983,
      "berry": 3984,
      "Ġoriginal": 3985,
      "Ġtower": 3986,
      "Ġspread": 3987,
      "Ġpeace": 3988,
      "Ġwelcome": 3989,
      "rer": 3990,
      "itude": 3991,
      "ann": 3992,
      "Ġrich": 3993,
      "ularly": 3994,
      "Ġplaced": 3995,
      "ĠLa": 3996,
      "Ġguard": 3997,
      "Ġstarting": 3998,
      "Ġhappening": 3999,
      "Ġdressed": 4000,
      "Ġforty": 4001,
      "stit": 4002,
      "Ġnotice": 4003,
      "ĠWin": 4004,
      "Ġentered": 4005,
      "Ġstudy": 4006,
      "Ġsurprised": 4007,
      "Ġelephant": 4008,
      "CE": 4009,
      "Ġrose": 4010,
      "ĠMany": 4011,
      "Ġsuff": 4012,
      "Ġrelations": 4013,
      "IF": 4014,
      "Ġtax": 4015,
      "Ġbound": 4016,
      "Ġlaid": 4017,
      "epend": 4018,
      "Ġconside": 4019,
      "Ġmissed": 4020,
      "Ġconsidered": 4021,
      "Ġonto": 4022,
      "ĠCor": 4023,
      "Ġnineteen": 4024,
      "Ġbite": 4025,
      "ĠRed": 4026,
      "ansas": 4027,
      "Ġhardly": 4028,
      "Ġdinosaur": 4029,
      "Ġmarket": 4030,
      "ĠBradford": 4031,
      "cast": 4032,
      "hin": 4033,
      "ĠPre": 4034,
      "Ġcollege": 4035,
      "KAT": 4036,
      "Ġpray": 4037,
      "order": 4038,
      "Ġninety": 4039,
      "JO": 4040,
      "Ġmer": 4041,
      "Ġpet": 4042,
      "ached": 4043,
      "bre": 4044,
      "anch": 4045,
      "ĠHigh": 4046,
      "Ġshape": 4047,
      "ĠFOR": 4048,
      "ĠLara": 4049,
      "Ġsharp": 4050,
      "Ġmachine": 4051,
      "Qu": 4052,
      "Ġsevent": 4053,
      "roll": 4054,
      "Ġplate": 4055,
      "ails": 4056,
      "ita": 4057,
      "Ġenv": 4058,
      "anced": 4059,
      "Ġloves": 4060,
      "Even": 4061,
      "icious": 4062,
      "Ġsupper": 4063,
      "Ġsimple": 4064,
      "'?\"": 4065,
      "ĠRo": 4066,
      "Ġfinal": 4067,
      "ENT": 4068,
      "Ġinvolved": 4069,
      "Ġtone": 4070,
      "oring": 4071,
      "Ġlaug": 4072,
      "Ġjoy": 4073,
      "ĠLo": 4074,
      "Ġclown": 4075,
      "ĠStreet": 4076,
      "Ġfilm": 4077,
      "Ġbomb": 4078,
      "edy": 4079,
      "Ġtrad": 4080,
      "ĠInternational": 4081,
      "Ġunless": 4082,
      "don": 4083,
      "Ġtight": 4084,
      "Ġyouth": 4085,
      "Ġtrick": 4086,
      "Ġemploy": 4087,
      "Got": 4088,
      "Ġcult": 4089,
      "ĠChe": 4090,
      "craft": 4091,
      "Ġcabin": 4092,
      "Ġearlier": 4093,
      "Ġlaughed": 4094,
      "ĠCouncil": 4095,
      "Ġfighting": 4096,
      "Ġladies": 4097,
      "AK": 4098,
      "gu": 4099,
      "ergy": 4100,
      "Ġradio": 4101,
      "do": 4102,
      "lected": 4103,
      "ĠRam": 4104,
      "Ġaged": 4105,
      "Ġchoo": 4106,
      "Ġaction": 4107,
      "Gr": 4108,
      "Ġlap": 4109,
      "Ġnet": 4110,
      "oma": 4111,
      "ĠAlbert": 4112,
      "Ġcoach": 4113,
      "ION": 4114,
      "ux": 4115,
      "Ġbunny": 4116,
      "ĠII": 4117,
      "anda": 4118,
      "ively": 4119,
      "Ġtwice": 4120,
      "Ġpleased": 4121,
      "LY": 4122,
      "ĠAMY": 4123,
      "ĠBer": 4124,
      "Ġknights": 4125,
      "ension": 4126,
      "Ġoccur": 4127,
      "Ġcomputer": 4128,
      "Could": 4129,
      "ĠIS": 4130,
      "arm": 4131,
      "ĠAlf": 4132,
      "ours": 4133,
      "Ġuhuh": 4134,
      "Ġcompletely": 4135,
      "din": 4136,
      "Ġmummy": 4137,
      "Ġham": 4138,
      "ĠChic": 4139,
      "Ġpencil": 4140,
      "izes": 4141,
      "ointed": 4142,
      "ique": 4143,
      "of": 4144,
      "sil": 4145,
      "Ġtherefore": 4146,
      "Ġopport": 4147,
      "Ġdangerous": 4148,
      "ĠRobert": 4149,
      "Ġreact": 4150,
      "outs": 4151,
      "Ġareas": 4152,
      "ĠFort": 4153,
      "Ġannounced": 4154,
      "Ġempty": 4155,
      "OP": 4156,
      "orough": 4157,
      "ĠME": 4158,
      "ousin": 4159,
      "Ġbless": 4160,
      "Ġfallen": 4161,
      "Ġconversation": 4162,
      "ba": 4163,
      "ĠSy": 4164,
      "Ġsearch": 4165,
      "Ġphys": 4166,
      "Ġfalling": 4167,
      "OME": 4168,
      "Ġhigher": 4169,
      "oken": 4170,
      "CAR": 4171,
      "Ġpir": 4172,
      "Ġweather": 4173,
      "Ġhouses": 4174,
      "His": 4175,
      "father": 4176,
      "Ġta": 4177,
      "Ġthroat": 4178,
      "usion": 4179,
      "ĠSant": 4180,
      "ĠPort": 4181,
      "ĠLittle": 4182,
      "ĠGermany": 4183,
      "anish": 4184,
      "Ġpan": 4185,
      "Ġshirt": 4186,
      "Ġactress": 4187,
      "Ġeasily": 4188,
      "Ġpuzzle": 4189,
      "hered": 4190,
      "Ġdere": 4191,
      "iance": 4192,
      "Ġpolitical": 4193,
      "Ġstrugg": 4194,
      "ĠDistrict": 4195,
      "Ġcell": 4196,
      "Ġduty": 4197,
      "Ġclock": 4198,
      "Ġmoves": 4199,
      "Ġmistake": 4200,
      "Illust": 4201,
      "uke": 4202,
      "ĠMatt": 4203,
      "ĠJo": 4204,
      "Ġrob": 4205,
      "ples": 4206,
      "Ġscene": 4207,
      "Ġeleven": 4208,
      "Ġfifteen": 4209,
      "Ġscream": 4210,
      "Ġmedic": 4211,
      "Ġescape": 4212,
      "Ġquarter": 4213,
      "Ġ\"!\"": 4214,
      "Ġwit": 4215,
      "Ġcrew": 4216,
      "Ġsocial": 4217,
      "rib": 4218,
      "ĠGeneral": 4219,
      "Ġgrou": 4220,
      "Ġwinter": 4221,
      "Ġdeclared": 4222,
      "can": 4223,
      "arrow": 4224,
      "Ġchap": 4225,
      "Ġfilled": 4226,
      "Ġpath": 4227,
      "ĠAward": 4228,
      "ĠBra": 4229,
      "Ġshoe": 4230,
      "Ġexplain": 4231,
      "Ġlucky": 4232,
      "Cl": 4233,
      "lebr": 4234,
      "ether": 4235,
      "ĠMother": 4236,
      "Ġnote": 4237,
      "ĠJenn": 4238,
      "atherine": 4239,
      "gged": 4240,
      "Ġcolors": 4241,
      "Ġhonest": 4242,
      "ĠHenry": 4243,
      "ns": 4244,
      "Ġide": 4245,
      "Ġmoon": 4246,
      "Ġlearned": 4247,
      "Ġble": 4248,
      "Ġthick": 4249,
      "Ġrate": 4250,
      "Ġallow": 4251,
      "Ġ()": 4252,
      "ockey": 4253,
      "ĠUnion": 4254,
      "Ġexcited": 4255,
      "Ġtemper": 4256,
      "IM": 4257,
      "Ġeconom": 4258,
      "Ġroof": 4259,
      "ĠOk": 4260,
      "Ġenc": 4261,
      "ungle": 4262,
      "Ġinflu": 4263,
      "Ġnecessary": 4264,
      "reg": 4265,
      "Ġmir": 4266,
      "Ġgir": 4267,
      "ĠBo": 4268,
      "ĠRight": 4269,
      "ocrat": 4270,
      "eg": 4271,
      "inal": 4272,
      "Ġinj": 4273,
      "Ġrow": 4274,
      "Ġsuit": 4275,
      "ensive": 4276,
      "Ġfellows": 4277,
      "Ġnature": 4278,
      "Ġflying": 4279,
      "burg": 4280,
      "Ġmentioned": 4281,
      "Illustration": 4282,
      "fter": 4283,
      "Ġpun": 4284,
      "Ġate": 4285,
      "ify": 4286,
      "Ġpersonal": 4287,
      "ĠChris": 4288,
      "Ġmerc": 4289,
      "Ġdrug": 4290,
      "Ġappl": 4291,
      "ĠTheir": 4292,
      "ĠJul": 4293,
      "elest": 4294,
      "Ġsugar": 4295,
      "Ġchem": 4296,
      "Ġwalks": 4297,
      "Ġpulled": 4298,
      "Ġpublished": 4299,
      "Ġestab": 4300,
      "SC": 4301,
      "Ġtong": 4302,
      "Ġtiny": 4303,
      "Ġnon": 4304,
      "Ġnea": 4305,
      "Ġaddress": 4306,
      "Ġepis": 4307,
      "Our": 4308,
      "Ġap": 4309,
      "Ġlem": 4310,
      "aries": 4311,
      "Ġplant": 4312,
      "eman": 4313,
      "Ġsinger": 4314,
      "ĠLouis": 4315,
      "Ġdoggie": 4316,
      "Ġlips": 4317,
      "Ġdeg": 4318,
      "igs": 4319,
      "Ġmilitary": 4320,
      "ĠBeck": 4321,
      "Ġmamma": 4322,
      "Ġstrength": 4323,
      "pos": 4324,
      "Ġbill": 4325,
      "Ġeager": 4326,
      "ĠLaw": 4327,
      "Ġrelig": 4328,
      "Ġawful": 4329,
      "Ġpractice": 4330,
      "Ġcloud": 4331,
      "Ġrabbit": 4332,
      ".,": 4333,
      "Ġ)": 4334,
      "ĠCreek": 4335,
      "Ġoffer": 4336,
      "Ġenemy": 4337,
      "Ġimm": 4338,
      "Ġexpected": 4339,
      "Ġbeside": 4340,
      "Ġspirit": 4341,
      "Ġiron": 4342,
      "ĠLem": 4343,
      "ĠOf": 4344,
      "ĠChair": 4345,
      "Ġsurface": 4346,
      "pa": 4347,
      "Ġkitty": 4348,
      "Ġdesk": 4349,
      "Ġdevelopment": 4350,
      "Ġswimming": 4351,
      "imit": 4352,
      "ĠJesus": 4353,
      "Ġregular": 4354,
      "Ġdogs": 4355,
      "Ġdancing": 4356,
      "Two": 4357,
      "gl": 4358,
      "ja": 4359,
      "Ġvan": 4360,
      "Ġproud": 4361,
      "Ġpercent": 4362,
      "bell": 4363,
      "rist": 4364,
      "Ġoffe": 4365,
      "iel": 4366,
      "Ġgrab": 4367,
      "ucker": 4368,
      "Ġwatched": 4369,
      "ĠMinister": 4370,
      "Ġfaith": 4371,
      "Ġimmediately": 4372,
      "Ġdeb": 4373,
      "bered": 4374,
      "Ġstands": 4375,
      "point": 4376,
      "Ġtiger": 4377,
      "ators": 4378,
      "urity": 4379,
      "Ġhadn": 4380,
      "Ġchocol": 4381,
      "Ġcheer": 4382,
      "ĠTV": 4383,
      "Ġstorm": 4384,
      "Ġwhoa": 4385,
      "Ġadvent": 4386,
      "Ġkeeping": 4387,
      "ĠPlay": 4388,
      "van": 4389,
      "Ġsoul": 4390,
      "Ġpin": 4391,
      "ĠTwo": 4392,
      "Ġbrush": 4393,
      "ĠCarol": 4394,
      "ĠDorothy": 4395,
      "Ar": 4396,
      "Cos": 4397,
      "Ġbutton": 4398,
      "Ġshore": 4399,
      "Ġshoulder": 4400,
      "ciety": 4401,
      "oid": 4402,
      "hem": 4403,
      "Ġbother": 4404,
      "Ġcalm": 4405,
      "Ġinqu": 4406,
      "oted": 4407,
      "ĠMost": 4408,
      "eless": 4409,
      "Ġrights": 4410,
      "Ġusual": 4411,
      "Ġacqu": 4412,
      "Ġlights": 4413,
      "arily": 4414,
      "ola": 4415,
      "ĠWhy": 4416,
      "Ġplain": 4417,
      "ĠDonald": 4418,
      "Ġoccasion": 4419,
      "icle": 4420,
      "idden": 4421,
      "Ġsail": 4422,
      "Ġappre": 4423,
      "Ġwoods": 4424,
      "iest": 4425,
      "Ġ\"...": 4426,
      "Ġcro": 4427,
      "oos": 4428,
      "Ġstone": 4429,
      "Ġnoticed": 4430,
      "Ġpurpose": 4431,
      "minist": 4432,
      "alcolm": 4433,
      "RUS": 4434,
      "omen": 4435,
      "Ġsaved": 4436,
      "ression": 4437,
      "obile": 4438,
      "Ġbedroom": 4439,
      "Ġmessage": 4440,
      "ĠAustralia": 4441,
      "nding": 4442,
      "ari": 4443,
      "lear": 4444,
      "ĠCat": 4445,
      "Ġearn": 4446,
      "Ġfault": 4447,
      "Ġaud": 4448,
      "Ġnap": 4449,
      "ĠKitty": 4450,
      "Ġpromised": 4451,
      "Ġoccup": 4452,
      "Ġdefinitely": 4453,
      "Ġgroups": 4454,
      "Ġ\".": 4455,
      "hips": 4456,
      "actor": 4457,
      "eech": 4458,
      "Ġtowns": 4459,
      "Ġimpro": 4460,
      "Ġmotion": 4461,
      "known": 4462,
      "Bye": 4463,
      "God": 4464,
      "heart": 4465,
      "Ġmicro": 4466,
      "ening": 4467,
      "utch": 4468,
      "ĠBel": 4469,
      "ĠYes": 4470,
      "achel": 4471,
      "ĠGO": 4472,
      "Ġgrown": 4473,
      "Ġsmoke": 4474,
      "Ġfigures": 4475,
      "Ġprofessional": 4476,
      "Ġfro": 4477,
      "cely": 4478,
      "Ġprim": 4479,
      "Ġremem": 4480,
      "Ġindust": 4481,
      "ĠBobby": 4482,
      "Ġabsolutely": 4483,
      "Ġmater": 4484,
      "Ġloss": 4485,
      "ĠSum": 4486,
      "Ġpeek": 4487,
      "Ġdirector": 4488,
      "eleste": 4489,
      "oom": 4490,
      "Ġpool": 4491,
      "Ġnurs": 4492,
      "ĠMor": 4493,
      "Ġagreed": 4494,
      "Ġourselves": 4495,
      "Ġdeterm": 4496,
      "YOU": 4497,
      "Ġmud": 4498,
      "ĠMalcolm": 4499,
      "ĠBu": 4500,
      "ĠBert": 4501,
      "Ġstraw": 4502,
      "Ġnormal": 4503,
      "Ġtap": 4504,
      "Ġstates": 4505,
      "ĠWH": 4506,
      "istic": 4507,
      "ĠEr": 4508,
      "Ġdownstairs": 4509,
      "Ġcontinues": 4510,
      "da": 4511,
      "Ġcities": 4512,
      "Ġdig": 4513,
      "Ġfashion": 4514,
      "ĠDar": 4515,
      "pper": 4516,
      "Ġexist": 4517,
      "Ġproduced": 4518,
      "ĠBlack": 4519,
      "Ġwearing": 4520,
      "Ġissue": 4521,
      "ĠEn": 4522,
      "oves": 4523,
      "Ġheads": 4524,
      "Ġstruck": 4525,
      "SE": 4526,
      "range": 4527,
      "Ġcart": 4528,
      "ĠKore": 4529,
      "Ġremain": 4530,
      "Ġevidence": 4531,
      "Ġmurder": 4532,
      "ĠAcademy": 4533,
      "Ġhuge": 4534,
      "Ġrevol": 4535,
      "Ġrail": 4536,
      "ĠBab": 4537,
      "ĠDO": 4538,
      "Ġplenty": 4539,
      "ucky": 4540,
      "Ġenergy": 4541,
      "Ġindivid": 4542,
      "Ġhotel": 4543,
      "Ġexperience": 4544,
      "Ġgentleman": 4545,
      "Ġavail": 4546,
      "Ġremarked": 4547,
      "Ġutter": 4548,
      "Ġtaste": 4549,
      "Celeste": 4550,
      "Ġyum": 4551,
      "Ġmeaning": 4552,
      "Ġsmart": 4553,
      "Ġcountries": 4554,
      "Ġlistening": 4555,
      "Ġguns": 4556,
      "],": 4557,
      "Ġplans": 4558,
      "Ġcarefully": 4559,
      "they": 4560,
      "UD": 4561,
      "orter": 4562,
      "orks": 4563,
      "Ġlid": 4564,
      "ĠChan": 4565,
      "Ġtells": 4566,
      ".'\"": 4567,
      "paper": 4568,
      "rated": 4569,
      "ĠMer": 4570,
      "Ġjour": 4571,
      "ĠGames": 4572,
      "osh": 4573,
      "Ġleader": 4574,
      "ĠSarah": 4575,
      "cue": 4576,
      "mie": 4577,
      "rican": 4578,
      "Ġdoc": 4579,
      "ĠMed": 4580,
      "Ġperfor": 4581,
      "Ġpurs": 4582,
      "Aye": 4583,
      "Never": 4584,
      "rim": 4585,
      "irgin": 4586,
      "ĠRoman": 4587,
      "Ġchoice": 4588,
      "iction": 4589,
      "ledge": 4590,
      "Ġattract": 4591,
      "Ġsongs": 4592,
      "aign": 4593,
      "ooper": 4594,
      "ĠMel": 4595,
      "Ġcoast": 4596,
      "ĠEllie": 4597,
      "IE": 4598,
      "Ġcards": 4599,
      "Ġtoast": 4600,
      "Ġjungle": 4601,
      "elp": 4602,
      "Ġfeat": 4603,
      "Ġsoldiers": 4604,
      "Ġchocolate": 4605,
      "Sp": 4606,
      "ups": 4607,
      "ĠTony": 4608,
      "ossible": 4609,
      "ĠCharles": 4610,
      "Ġmotor": 4611,
      "Ġclimb": 4612,
      "RR": 4613,
      "Sir": 4614,
      "Ġcere": 4615,
      "ourt": 4616,
      "osta": 4617,
      "ruct": 4618,
      "Ġballs": 4619,
      "WH": 4620,
      "ĠMont": 4621,
      "ĠSen": 4622,
      "Ġremained": 4623,
      "Ġgenerally": 4624,
      "Ġhistor": 4625,
      "Ġgrave": 4626,
      "ĠLet": 4627,
      "Ġdesp": 4628,
      "Ġassist": 4629,
      "Ġimagine": 4630,
      "Ġtongue": 4631,
      "coughs": 4632,
      "Ġfund": 4633,
      "vell": 4634,
      "uten": 4635,
      "ĠSid": 4636,
      "ulf": 4637,
      "Ġtrunk": 4638,
      "ĠFlor": 4639,
      "Ġpaint": 4640,
      "Ġedge": 4641,
      "Ġeducation": 4642,
      "back": 4643,
      "ords": 4644,
      "Ġtravel": 4645,
      "Only": 4646,
      "Ġmodern": 4647,
      "Bl": 4648,
      "Ġweak": 4649,
      "Ġtext": 4650,
      "Ġofficers": 4651,
      "Ġdread": 4652,
      "Ġthou": 4653,
      "illiant": 4654,
      "Ġblind": 4655,
      "Ġdriver": 4656,
      "Ġcelebr": 4657,
      "Ġprivate": 4658,
      "Che": 4659,
      "eer": 4660,
      "Ġpa": 4661,
      "Ġwaste": 4662,
      "Ġstret": 4663,
      "Ġsits": 4664,
      "Ġclearly": 4665,
      "LLL": 4666,
      "Ġperfectly": 4667,
      "MB": 4668,
      "gress": 4669,
      "iber": 4670,
      "ram": 4671,
      "ishes": 4672,
      "ooh": 4673,
      "ĠAct": 4674,
      "Ġproceed": 4675,
      "ĠHere": 4676,
      "Ġperm": 4677,
      "After": 4678,
      "itation": 4679,
      "Ġpill": 4680,
      "Ġlog": 4681,
      "ĠAlden": 4682,
      "Ġsnake": 4683,
      "ification": 4684,
      "noise": 4685,
      "Ġfixed": 4686,
      "Ġbrave": 4687,
      "IL": 4688,
      "just": 4689,
      "Ġtears": 4690,
      "ĠCass": 4691,
      "Ġships": 4692,
      "ĠRE": 4693,
      "Ġindic": 4694,
      "inese": 4695,
      "Ġdiscovered": 4696,
      "ironment": 4697,
      "Ġemer": 4698,
      "Ġstairs": 4699,
      "urt": 4700,
      "ĠHam": 4701,
      "osing": 4702,
      "ĠOther": 4703,
      "Ġprice": 4704,
      "ocks": 4705,
      "Ġproduc": 4706,
      "nds": 4707,
      "Ġfirm": 4708,
      "These": 4709,
      "Ġmonster": 4710,
      "Ġbelieved": 4711,
      "Ġbrothers": 4712,
      "Ġrule": 4713,
      "Keep": 4714,
      "kins": 4715,
      "Ġdare": 4716,
      "ĠGold": 4717,
      "Ġvo": 4718,
      "Ġscrew": 4719,
      "Ġyounger": 4720,
      "Ġtrip": 4721,
      "Ġversion": 4722,
      "Ġhill": 4723,
      "otte": 4724,
      "vere": 4725,
      "Ġknife": 4726,
      "Ġspoken": 4727,
      "Ġcontract": 4728,
      "Ġopposite": 4729,
      "Br": 4730,
      "Great": 4731,
      "ima": 4732,
      "ĠMic": 4733,
      "chuckles": 4734,
      "ĠPil": 4735,
      "Ġneither": 4736,
      "Ġseconds": 4737,
      "Ġcraw": 4738,
      "has": 4739,
      "icy": 4740,
      "ushes": 4741,
      "ĠRem": 4742,
      "Ġnurse": 4743,
      "Ġwan": 4744,
      "Ġdun": 4745,
      "ĠWAS": 4746,
      "ĠOK": 4747,
      "Ġcircum": 4748,
      "JJ": 4749,
      "Ġsides": 4750,
      "Ġfaces": 4751,
      "enny": 4752,
      "ĠMot": 4753,
      "Ġsake": 4754,
      "Ġcalls": 4755,
      "Ġdemand": 4756,
      "cellent": 4757,
      "IGHT": 4758,
      "sych": 4759,
      "Ġnomin": 4760,
      "Ġteach": 4761,
      "Ġsurv": 4762,
      "ĠComp": 4763,
      "Ġhonor": 4764,
      "ĠGuy": 4765,
      "ĠMartin": 4766,
      "?'": 4767,
      "De": 4768,
      "oons": 4769,
      "Ġtaught": 4770,
      "rees": 4771,
      "Ġheat": 4772,
      "Ġshown": 4773,
      "ĠWil": 4774,
      "Ġunc": 4775,
      "Ġkinda": 4776,
      "Ġruns": 4777,
      "Ġairpl": 4778,
      "oking": 4779,
      "ĠScott": 4780,
      "zes": 4781,
      "Ġwed": 4782,
      "asy": 4783,
      "Ġweight": 4784,
      "Ġworried": 4785,
      "Ġbrain": 4786,
      "Ġshad": 4787,
      "Ġafterwards": 4788,
      "Ġchoose": 4789,
      "ilda": 4790,
      "ĠPeople": 4791,
      "Ġopportunity": 4792,
      "AVE": 4793,
      "ĠMid": 4794,
      "Ġarrow": 4795,
      "Ġflower": 4796,
      "ictor": 4797,
      "ĠMarg": 4798,
      "Ġenter": 4799,
      "Ġdecision": 4800,
      "Ġproduct": 4801,
      "Ġsandwich": 4802,
      "vi": 4803,
      "Ġlawyer": 4804,
      "Ġmodel": 4805,
      "ĠItalian": 4806,
      "Ġwoof": 4807,
      "iring": 4808,
      "ĠEuropean": 4809,
      "OD": 4810,
      "WE": 4811,
      "_.": 4812,
      "ios": 4813,
      "using": 4814,
      "Ġproperly": 4815,
      "Ġmountain": 4816,
      "Ġanxious": 4817,
      "wr": 4818,
      "Ġtar": 4819,
      "Ġwrest": 4820,
      "Ġhelping": 4821,
      "-\"": 4822,
      "aning": 4823,
      "ĠNav": 4824,
      "Ġaddition": 4825,
      "ebye": 4826,
      "Ġpleasant": 4827,
      "ĠSmith": 4828,
      "By": 4829,
      "Wow": 4830,
      "Ġign": 4831,
      "Ġdouble": 4832,
      "Ġge": 4833,
      "lend": 4834,
      "Ġsurr": 4835,
      "ĠWarren": 4836,
      "Ġpants": 4837,
      "ĠSaint": 4838,
      "Ġfounded": 4839,
      "Ġtv": 4840,
      "Ġox": 4841,
      "ero": 4842,
      "istan": 4843,
      "raw": 4844,
      "Ġaccording": 4845,
      "ĠReg": 4846,
      "Ġbathroom": 4847,
      "oly": 4848,
      "ĠGab": 4849,
      "Ġcentre": 4850,
      "Ġincluded": 4851,
      "Ġgrandma": 4852,
      "Ġjourney": 4853,
      "Pro": 4854,
      "dam": 4855,
      "Ġchat": 4856,
      "Ġant": 4857,
      "Ġcomment": 4858,
      "fection": 4859,
      "ĠChurch": 4860,
      "Ġforest": 4861,
      "hod": 4862,
      "Ġlower": 4863,
      "Ġspeech": 4864,
      "Ġcontact": 4865,
      "Ġopening": 4866,
      "Ġmagaz": 4867,
      "Ġnorthwest": 4868,
      "Ġharm": 4869,
      "Ġreck": 4870,
      "ĠMil": 4871,
      "ĠSl": 4872,
      "ĠSing": 4873,
      "aked": 4874,
      "From": 4875,
      "Ġprepared": 4876,
      "Um": 4877,
      "Ġtun": 4878,
      "Ġmut": 4879,
      "ĠTed": 4880,
      "Ġvote": 4881,
      "izing": 4882,
      "arently": 4883,
      "Ġeffort": 4884,
      "ares": 4885,
      "ĠRand": 4886,
      "Ġgrowing": 4887,
      "Ġshake": 4888,
      "Ġmarry": 4889,
      "Ġservices": 4890,
      "Ġpound": 4891,
      "Ġbrilliant": 4892,
      "cip": 4893,
      "Ġeighty": 4894,
      "ĠSpanish": 4895,
      "Ġevident": 4896,
      "ĠChild": 4897,
      "Ġbudget": 4898,
      "Perhaps": 4899,
      "Ooh": 4900,
      "Ġrange": 4901,
      "Ġobviously": 4902,
      "chard": 4903,
      "UK": 4904,
      "hest": 4905,
      "Ġsoup": 4906,
      "ache": 4907,
      "Ġforces": 4908,
      "ĠCatherine": 4909,
      "ĠGreen": 4910,
      "udd": 4911,
      "Ġshower": 4912,
      "Ġfalls": 4913,
      "Ġwalls": 4914,
      "ĠWhite": 4915,
      "host": 4916,
      "mn": 4917,
      "umber": 4918,
      "ĠFoot": 4919,
      "Ġquality": 4920,
      "angle": 4921,
      "Ġstructure": 4922,
      "ĠQueen": 4923,
      "inting": 4924,
      "oured": 4925,
      "hall": 4926,
      "erland": 4927,
      "Ġdepend": 4928,
      "ĠRog": 4929,
      "onday": 4930,
      "ograph": 4931,
      "Ġfairly": 4932,
      "Ġparticularly": 4933,
      "ĠTw": 4934,
      "ĠTy": 4935,
      "aboo": 4936,
      "Ġbringing": 4937,
      "Ġfavour": 4938,
      "Ġcomfortable": 4939,
      "Ġmedicine": 4940,
      "Ġsis": 4941,
      "Ġsour": 4942,
      "eds": 4943,
      "ĠNat": 4944,
      "ĠOld": 4945,
      "Ġexec": 4946,
      "Ġpapers": 4947,
      "ĠGerald": 4948,
      "Ġimpossible": 4949,
      "aura": 4950,
      "iggles": 4951,
      "ĠDoctor": 4952,
      "ocratic": 4953,
      "ĠChairman": 4954,
      "Com": 4955,
      "Mar": 4956,
      "Re": 4957,
      "Say": 4958,
      "gn": 4959,
      "Ġcivil": 4960,
      "oday": 4961,
      "thew": 4962,
      "Ġindepend": 4963,
      "Ġcontinue": 4964,
      "Ġtelephone": 4965,
      "',": 4966,
      "Ġir": 4967,
      "Ġgro": 4968,
      "ĠHy": 4969,
      "ĠRy": 4970,
      "Ġschools": 4971,
      "Ġeasier": 4972,
      "Ġcorrect": 4973,
      "Ġsusp": 4974,
      "Ġvictim": 4975,
      "Pe": 4976,
      "Ġtie": 4977,
      "ona": 4978,
      "ĠSea": 4979,
      "ĠAre": 4980,
      "ĠStone": 4981,
      "ITH": 4982,
      "Ġcampaign": 4983,
      "Ġconcerned": 4984,
      "ĠJennie": 4985,
      "jo": 4986,
      "Ġoil": 4987,
      "Ġcases": 4988,
      "Ġfold": 4989,
      "Ġbeach": 4990,
      "ĠBern": 4991,
      "Ġneat": 4992,
      "Ġsomewhat": 4993,
      "Ġwilling": 4994,
      "Ġstayed": 4995,
      "Ġhunting": 4996,
      "abr": 4997,
      "Ġbyebye": 4998,
      "ĠOrd": 4999,
      "Ġmanaged": 5000,
      "pering": 5001,
      "Ġpainting": 5002,
      "Ġreaches": 5003,
      "Ġwagon": 5004,
      "LES": 5005,
      "enne": 5006,
      "Ġstyle": 5007,
      "Ġknowing": 5008,
      "ĠKat": 5009,
      "ĠFriday": 5010,
      "ĠBefore": 5011,
      "Ġinvestig": 5012,
      "Ġsettled": 5013,
      "Ġliter": 5014,
      "Ġeld": 5015,
      "Ġknees": 5016,
      "ĠChina": 5017,
      "Ġcheek": 5018,
      "DS": 5019,
      "Gu": 5020,
      "Hold": 5021,
      "die": 5022,
      "Ãº": 5023,
      "Ġdoors": 5024,
      "ĠAwards": 5025,
      "ching": 5026,
      "berg": 5027,
      "ooth": 5028,
      "Ġsmaller": 5029,
      "Ġcondition": 5030,
      "Ġrisk": 5031,
      "Fuck": 5032,
      "New": 5033,
      "ae": 5034,
      "nic": 5035,
      "Ġtid": 5036,
      "Ġscient": 5037,
      "Ġmult": 5038,
      "aly": 5039,
      "Ġcancer": 5040,
      "Ġsuc": 5041,
      "Ġvac": 5042,
      "Ġslide": 5043,
      "arliam": 5044,
      "Ġcenter": 5045,
      "ĠCanada": 5046,
      "Ġlocated": 5047,
      "Ġfemale": 5048,
      "Tr": 5049,
      "aches": 5050,
      "ĠSim": 5051,
      "eaks": 5052,
      "ĠWE": 5053,
      "apa": 5054,
      "Ġclaim": 5055,
      "Ġsucceed": 5056,
      "essel": 5057,
      "Ġlatter": 5058,
      "ented": 5059,
      "ĠMore": 5060,
      "Ġconv": 5061,
      "Ġslaves": 5062,
      "Ġobjects": 5063,
      "ĠGeorg": 5064,
      "non": 5065,
      "sha": 5066,
      "Ġpony": 5067,
      "Ġthus": 5068,
      "sequ": 5069,
      "Ġworst": 5070,
      "Ġdrinking": 5071,
      "Ġcloser": 5072,
      "Poss": 5073,
      "Ġ!\"": 5074,
      "itched": 5075,
      "omed": 5076,
      "Ġdozen": 5077,
      "Ġstaff": 5078,
      "Ġknee": 5079,
      "Ġaffect": 5080,
      "Ġballoon": 5081,
      "ounce": 5082,
      "Ġmovement": 5083,
      "Ġtickle": 5084,
      "bon": 5085,
      "Ġtask": 5086,
      "ĠRol": 5087,
      "Ġprevious": 5088,
      "Ġbits": 5089,
      "Ġfinding": 5090,
      "Ġdistribut": 5091,
      "Ġcolonel": 5092,
      "Ġretired": 5093,
      "Ġmurd": 5094,
      "Ġpossibly": 5095,
      "Ġ#": 5096,
      "Ġbub": 5097,
      "urb": 5098,
      "ĠBig": 5099,
      "Ġprefer": 5100,
      "Ġopin": 5101,
      "Ġbegins": 5102,
      "Isn": 5103,
      "Ġwindows": 5104,
      "Ġcastle": 5105,
      "Ġbenef": 5106,
      "Ġtitle": 5107,
      "Ġresearch": 5108,
      "cy": 5109,
      "ule": 5110,
      "ota": 5111,
      "Ġrout": 5112,
      "see": 5113,
      "ĠMolly": 5114,
      "allas": 5115,
      "Ġchanges": 5116,
      "Ġfeels": 5117,
      "Ġsquee": 5118,
      "Ġofficial": 5119,
      "arliament": 5120,
      "rid": 5121,
      "isher": 5122,
      "atoes": 5123,
      "tering": 5124,
      "ĠPal": 5125,
      "ĠWhile": 5126,
      "ĠVirgin": 5127,
      "Ġsuspect": 5128,
      "ĠParis": 5129,
      "Mom": 5130,
      "mar": 5131,
      "sighs": 5132,
      "Ġboss": 5133,
      "imate": 5134,
      "Ġstock": 5135,
      "ulated": 5136,
      "Ġpoet": 5137,
      "Ġstaying": 5138,
      "Ġrules": 5139,
      "Ġrapid": 5140,
      "ĠBecky": 5141,
      "Ġcircumst": 5142,
      "Put": 5143,
      "spect": 5144,
      "Ġcrime": 5145,
      "Ġdeveloped": 5146,
      "Ġstatement": 5147,
      "SSS": 5148,
      "Ġevents": 5149,
      "ederal": 5150,
      "Ġtoes": 5151,
      "ura": 5152,
      "Ġfruit": 5153,
      "Ġplayers": 5154,
      "Ġprevent": 5155,
      "Ġaircraft": 5156,
      "Ġrocks": 5157,
      "Ġappearance": 5158,
      "itzerland": 5159,
      "Ġrepeated": 5160,
      "BC": 5161,
      "rot": 5162,
      "Åį": 5163,
      "Ġodd": 5164,
      "Ġpair": 5165,
      "ĠTucker": 5166,
      "ĠSand": 5167,
      "ĠCamp": 5168,
      "ĠPet": 5169,
      "ĠPak": 5170,
      "Ġflag": 5171,
      "Ġobl": 5172,
      "ĠBarry": 5173,
      "Ġwhispered": 5174,
      "silver": 5175,
      "ĠFlorida": 5176,
      "First": 5177,
      "IA": 5178,
      "with": 5179,
      "onse": 5180,
      "asing": 5181,
      "Ġdoin": 5182,
      "ĠMY": 5183,
      "ĠAsian": 5184,
      "Ġordered": 5185,
      "bits": 5186,
      "Ġaver": 5187,
      "isa": 5188,
      "Ġforced": 5189,
      "ental": 5190,
      "ĠDick": 5191,
      "appy": 5192,
      "Ġleading": 5193,
      "ĠLucy": 5194,
      "fess": 5195,
      "pet": 5196,
      "Ġbal": 5197,
      "Ġmail": 5198,
      "Ġmeal": 5199,
      "ĠBell": 5200,
      "ĠHE": 5201,
      "Ġsposta": 5202,
      "icked": 5203,
      "Ġtroops": 5204,
      "Ġbloody": 5205,
      "ĠLoire": 5206,
      "rate": 5207,
      "tles": 5208,
      "Ġfishing": 5209,
      "anning": 5210,
      "Ġancient": 5211,
      "ifle": 5212,
      "ĠDep": 5213,
      "Ġmanager": 5214,
      "ĠStan": 5215,
      "Ġwriter": 5216,
      "Ġremind": 5217,
      "Ġscrat": 5218,
      "Ġresol": 5219,
      "Ġmagic": 5220,
      "Ġcarrying": 5221,
      "ĠSwitzerland": 5222,
      "Ġslightly": 5223,
      "ĠSecret": 5224,
      "ĠMexico": 5225,
      "ua": 5226,
      "iti": 5227,
      "atory": 5228,
      "stood": 5229,
      "ores": 5230,
      "ĠFenn": 5231,
      "ĠEven": 5232,
      "Ġcrayons": 5233,
      "ĠRoyal": 5234,
      "ashington": 5235,
      "Ġscarcely": 5236,
      "Ġenvironment": 5237,
      "dies": 5238,
      "Ġaward": 5239,
      "Ġwhist": 5240,
      "ria": 5241,
      "ishment": 5242,
      "ĠChinese": 5243,
      "Ġteams": 5244,
      "Ġsigned": 5245,
      "Miss": 5246,
      "tr": 5247,
      "Ġfoc": 5248,
      "aling": 5249,
      "enth": 5250,
      "ĠFin": 5251,
      "Ġcrash": 5252,
      "Ġkeeps": 5253,
      "ĠRussian": 5254,
      "Ġblanket": 5255,
      "Ġappreci": 5256,
      "Ġavailable": 5257,
      "Ne": 5258,
      "ker": 5259,
      "ĠÃ": 5260,
      "ĠAT": 5261,
      "illed": 5262,
      "cean": 5263,
      "ĠLos": 5264,
      "aws": 5265,
      "Ġelected": 5266,
      "Ġsixty": 5267,
      "Ġsuccessful": 5268,
      "Ġbi": 5269,
      "Ġbee": 5270,
      "ila": 5271,
      "ĠEvery": 5272,
      "ĠUrs": 5273,
      "aving": 5274,
      "anche": 5275,
      "Ġpulls": 5276,
      "Ġsoftly": 5277,
      "looking": 5278,
      "Se": 5279,
      "lah": 5280,
      "Ġcute": 5281,
      "Ġpsych": 5282,
      "aled": 5283,
      "Ġbutt": 5284,
      "acks": 5285,
      "Ġalt": 5286,
      "Ġexcit": 5287,
      "rica": 5288,
      "Ġholiday": 5289,
      "pre": 5290,
      "Ġpour": 5291,
      "Ġstre": 5292,
      "Ġstro": 5293,
      "ilian": 5294,
      "Ġknowledge": 5295,
      "ĠDiv": 5296,
      "ĠJew": 5297,
      "ulous": 5298,
      "ĠRes": 5299,
      "Ġvessel": 5300,
      "Ġacting": 5301,
      "Ġknocked": 5302,
      "Ġcopy": 5303,
      "ĠCollege": 5304,
      "Ġairplane": 5305,
      "Ste": 5306,
      "gen": 5307,
      "gain": 5308,
      "Ġtour": 5309,
      "ĠLat": 5310,
      "Ġexcellent": 5311,
      "bey": 5312,
      "ĠFranc": 5313,
      "Ġtraining": 5314,
      "fortun": 5315,
      "Alright": 5316,
      "ĠRepublic": 5317,
      "utenant": 5318,
      "uf": 5319,
      "Ġfancy": 5320,
      "ĠMount": 5321,
      "umn": 5322,
      "Ġtrade": 5323,
      "Ġotherwise": 5324,
      "Ġsilent": 5325,
      "iety": 5326,
      "Ġheaven": 5327,
      "otion": 5328,
      "ĠMur": 5329,
      "Ġplants": 5330,
      "ĠLab": 5331,
      "Ġdragon": 5332,
      "Ġdecide": 5333,
      "Ġforgotten": 5334,
      "Ġdetermined": 5335,
      "Ġbike": 5336,
      "Ġfought": 5337,
      "Ġrom": 5338,
      "ĠMike": 5339,
      "Ġassoci": 5340,
      "Ġ\"[.": 5341,
      "Ġafford": 5342,
      "Ġthrowing": 5343,
      "Ġrealize": 5344,
      "Ġsuggested": 5345,
      "ĠSummer": 5346,
      "fa": 5347,
      "Ġpow": 5348,
      "Ġgently": 5349,
      "ena": 5350,
      "ĠHay": 5351,
      "ĠDay": 5352,
      "eping": 5353,
      "Ġdolls": 5354,
      "ĠCanad": 5355,
      "Ġetc": 5356,
      "GE": 5357,
      "hab": 5358,
      "Ġbare": 5359,
      "Ġdise": 5360,
      "Ġthin": 5361,
      "ĠDallas": 5362,
      "Ġamazing": 5363,
      "Ġextreme": 5364,
      "Ġhanging": 5365,
      "Ġcred": 5366,
      "Ġhomes": 5367,
      "etch": 5368,
      "ĠAnt": 5369,
      "ĠAcc": 5370,
      "Ġgoal": 5371,
      "ĠCO": 5372,
      "rost": 5373,
      "Ġjigs": 5374,
      "ĠDes": 5375,
      "Ġuses": 5376,
      "Ġclap": 5377,
      "tained": 5378,
      "Ġpresence": 5379,
      "Ġburst": 5380,
      "ĠColonel": 5381,
      "Ġorders": 5382,
      "Ġmemory": 5383,
      "ĠHal": 5384,
      "Ġtractor": 5385,
      "HER": 5386,
      "ĠChicago": 5387,
      "NN": 5388,
      "aa": 5389,
      "fly": 5390,
      "Ġfond": 5391,
      "uns": 5392,
      "Ġsaf": 5393,
      "Ġfeelings": 5394,
      "Ġstops": 5395,
      "Ġrelated": 5396,
      "ĠCharlotte": 5397,
      "Ġoffered": 5398,
      "lor": 5399,
      "Ġthee": 5400,
      "Ġder": 5401,
      "Ġlake": 5402,
      "ado": 5403,
      "Ġrat": 5404,
      "Ġarrange": 5405,
      "Ġprint": 5406,
      "ultan": 5407,
      "Ġresponse": 5408,
      "Ġshopping": 5409,
      "Ġrelationship": 5410,
      "gent": 5411,
      "Ġbin": 5412,
      "Ġupset": 5413,
      "uments": 5414,
      "ĠJer": 5415,
      "action": 5416,
      "Ġthrown": 5417,
      "Ġturtle": 5418,
      "Ġpalace": 5419,
      "Nice": 5420,
      "ga": 5421,
      "Ġmate": 5422,
      "Ġgang": 5423,
      "ĠBet": 5424,
      "place": 5425,
      "Ġbarn": 5426,
      "Ġyay": 5427,
      "Ġrelease": 5428,
      "ĠMo": 5429,
      "ĠMonday": 5430,
      "Ġdebut": 5431,
      "ols": 5432,
      "olars": 5433,
      "ĠWashington": 5434,
      "Ġsports": 5435,
      "Ġkinds": 5436,
      "Ġaware": 5437,
      "Ġrespond": 5438,
      "$=": 5439,
      "Ġpred": 5440,
      "ĠProv": 5441,
      "Ġrequire": 5442,
      "Ġrecognized": 5443,
      "ĠAwww": 5444,
      "izza": 5445,
      "Ġgreatest": 5446,
      "Ġdolly": 5447,
      "Ġmagn": 5448,
      "Ġgovernor": 5449,
      "ĠJean": 5450,
      "Ġmicrophone": 5451,
      "book": 5452,
      "isions": 5453,
      "Ġsees": 5454,
      "Ġsocks": 5455,
      "Ġshoulders": 5456,
      "Ġflight": 5457,
      "ĠMarilla": 5458,
      "ESS": 5459,
      "ĠArab": 5460,
      "Ġeighteen": 5461,
      "ĠOlympics": 5462,
      "Ġwestern": 5463,
      "ĠJess": 5464,
      "ĠEarly": 5465,
      "ĠVictor": 5466,
      "Ġstranger": 5467,
      "Ġfrogs": 5468,
      "fall": 5469,
      "Ġyo": 5470,
      "Ġnarrow": 5471,
      "Ġ\"[$=": 5472,
      "Ġexerc": 5473,
      "Ġpartner": 5474,
      "Ġthoughts": 5475,
      "ajest": 5476,
      "Ġquietly": 5477,
      "Ġnursery": 5478,
      "About": 5479,
      "Ġaye": 5480,
      "ĠDis": 5481,
      "Ġvalue": 5482,
      "lahoma": 5483,
      "Ġexcitement": 5484,
      "Rem": 5485,
      "down": 5486,
      "Ġfurn": 5487,
      "Ġfox": 5488,
      "ĠSince": 5489,
      "ĠBoy": 5490,
      "Ġdeck": 5491,
      "Ġeverywhere": 5492,
      "Ġshowing": 5493,
      "Ġlarger": 5494,
      "Ġmor": 5495,
      "ingu": 5496,
      "ĠIr": 5497,
      "oms": 5498,
      "ĠSus": 5499,
      "Ġnovel": 5500,
      "ulations": 5501,
      "soft": 5502,
      "Ġfourth": 5503,
      "Ġmatters": 5504,
      "ĠEdm": 5505,
      "Ġpatient": 5506,
      "ĠScot": 5507,
      "ĠMatthew": 5508,
      "Ġremembered": 5509,
      "put": 5510,
      "Ã¨": 5511,
      "Ġyummy": 5512,
      "ĠDel": 5513,
      "this": 5514,
      "ogether": 5515,
      "Ġwaited": 5516,
      "Ġfully": 5517,
      "Ġformula": 5518,
      "ĠOklahoma": 5519,
      "Ġsite": 5520,
      "ata": 5521,
      "ĠBest": 5522,
      "ĠPost": 5523,
      "ĠPolly": 5524,
      "Ġextend": 5525,
      "Ġterr": 5526,
      "Ġneighbor": 5527,
      "pan": 5528,
      "hah": 5529,
      "Ġshr": 5530,
      "inky": 5531,
      "Ġdrama": 5532,
      "mend": 5533,
      "Ġwitness": 5534,
      "ship": 5535,
      "Ġpushed": 5536,
      "Ġnorthern": 5537,
      "Ġweird": 5538,
      "ĠHaw": 5539,
      "Ġprepar": 5540,
      "Ġsmiling": 5541,
      "Ġzoo": 5542,
      "Ġescap": 5543,
      "Ġdetect": 5544,
      "Ġfrightened": 5545,
      "ĠOrder": 5546,
      "Ġachie": 5547,
      "Ġsch": 5548,
      "Ġmo": 5549,
      "inger": 5550,
      "Ġprogress": 5551,
      "Ġscreen": 5552,
      "Ġjudge": 5553,
      "Am": 5554,
      "ILL": 5555,
      "KN": 5556,
      "giggles": 5557,
      "ko": 5558,
      "Ġ...\"": 5559,
      "ano": 5560,
      "ora": 5561,
      "ĠBay": 5562,
      "ilities": 5563,
      "Ġ(;": 5564,
      "ĠUN": 5565,
      "Ġcourage": 5566,
      "Ġtrail": 5567,
      "ĠMargaret": 5568,
      "bow": 5569,
      "urry": 5570,
      "ĠJud": 5571,
      "ĠLee": 5572,
      "Ġstudied": 5573,
      "Ġbatter": 5574,
      "Ġburied": 5575,
      "Ġpeekaboo": 5576,
      "pen": 5577,
      "Ġwave": 5578,
      "Ġwipe": 5579,
      "Ġsac": 5580,
      "Ġcousin": 5581,
      "Ġdying": 5582,
      "Ġstir": 5583,
      "Ġadminist": 5584,
      "annah": 5585,
      "Ġserve": 5586,
      "Ġfarmer": 5587,
      "Ġexplained": 5588,
      "Ġdata": 5589,
      "ĠAirport": 5590,
      "Ġsink": 5591,
      "hand": 5592,
      "ĠTown": 5593,
      "ading": 5594,
      "Ġriding": 5595,
      "Ġstom": 5596,
      "Ġmere": 5597,
      "odd": 5598,
      "Ġopens": 5599,
      "apping": 5600,
      "ĠCla": 5601,
      "Ġestabl": 5602,
      "ials": 5603,
      "azy": 5604,
      "Ġinstant": 5605,
      "Ġpowerful": 5606,
      "ĠCromer": 5607,
      "Ġdirectly": 5608,
      "ĠGovernor": 5609,
      "Pl": 5610,
      "wing": 5611,
      "Ġtim": 5612,
      "icles": 5613,
      "chief": 5614,
      "Ġplat": 5615,
      "ĠOx": 5616,
      "ateg": 5617,
      "awa": 5618,
      "Ġpassing": 5619,
      "UST": 5620,
      "KAR": 5621,
      "Tom": 5622,
      "ients": 5623,
      "Ġfile": 5624,
      "ĠMam": 5625,
      "ĠMax": 5626,
      "ĠStep": 5627,
      "chair": 5628,
      "Didn": 5629,
      "Ġcompanion": 5630,
      "ĠAngeles": 5631,
      "ĠSanta": 5632,
      "rec": 5633,
      "Ġgift": 5634,
      "Ġ[?": 5635,
      "ĠLaura": 5636,
      "Ġqual": 5637,
      "Ġgreater": 5638,
      "Ġbug": 5639,
      "ONE": 5640,
      "Ġreply": 5641,
      "Ġsentence": 5642,
      "Ġplanning": 5643,
      "Ġbaseball": 5644,
      "Ġwedding": 5645,
      "Ġpra": 5646,
      "Ġroles": 5647,
      "ĠAbe": 5648,
      "ĠBO": 5649,
      "uman": 5650,
      "uclear": 5651,
      "Ġentertain": 5652,
      "ĠAfrica": 5653,
      "Ġcooking": 5654,
      "ĠWindows": 5655,
      "Ġsafety": 5656,
      "Ġmouse": 5657,
      "semb": 5658,
      "cel": 5659,
      "actually": 5660,
      "Ġflo": 5661,
      "Ġcontr": 5662,
      "Ġrecently": 5663,
      "Shut": 5664,
      "Ġconstruction": 5665,
      "ĠVirginia": 5666,
      "Gl": 5667,
      "rick": 5668,
      "there": 5669,
      "uous": 5670,
      "ĠCast": 5671,
      "urance": 5672,
      "ĠPri": 5673,
      "venue": 5674,
      "Ġbecoming": 5675,
      "ibility": 5676,
      "Ġmission": 5677,
      "Ġincludes": 5678,
      "Ġprize": 5679,
      "Ġbowl": 5680,
      "Ġaverage": 5681,
      "ault": 5682,
      "sec": 5683,
      "Ġepisode": 5684,
      "ĠGabrie": 5685,
      "Ġreckon": 5686,
      "Ġopinion": 5687,
      "rant": 5688,
      "Ġbump": 5689,
      "ĠMos": 5690,
      "olic": 5691,
      "Ġadvant": 5692,
      "Ġrecognize": 5693,
      "Possum": 5694,
      "cul": 5695,
      "ware": 5696,
      "aming": 5697,
      "Ġplastic": 5698,
      "ĠRock": 5699,
      "ĠRachel": 5700,
      "Ġpeas": 5701,
      "ĠBarty": 5702,
      "Ġmainly": 5703,
      "ĠBradley": 5704,
      "Ġexpression": 5705,
      "iliar": 5706,
      "aed": 5707,
      "sed": 5708,
      "was": 5709,
      "year": 5710,
      "Ġwid": 5711,
      "Ġtooth": 5712,
      "ĠTim": 5713,
      "Ġrings": 5714,
      "alley": 5715,
      "Ġshook": 5716,
      "ANT": 5717,
      "ĠArt": 5718,
      "Ġpapa": 5719,
      "Ġsticks": 5720,
      "Ġnormally": 5721,
      "Ġmirror": 5722,
      "Ġdunno": 5723,
      "fessor": 5724,
      "Mother": 5725,
      "li": 5726,
      "vo": 5727,
      "Ġess": 5728,
      "Ġwheels": 5729,
      "Ġshock": 5730,
      "ĠRuth": 5731,
      "lands": 5732,
      "Ġevil": 5733,
      "Ġ\"..": 5734,
      "astern": 5735,
      "Ġforms": 5736,
      "ĠSun": 5737,
      "Ġshell": 5738,
      "abeth": 5739,
      "ĠSpain": 5740,
      "ĠGrandma": 5741,
      "Ġjigsaw": 5742,
      "iy": 5743,
      "Ġscience": 5744,
      "ential": 5745,
      "Ġshel": 5746,
      "ĠFil": 5747,
      "ishop": 5748,
      "Ġcarriage": 5749,
      "ĠHarold": 5750,
      "ĠZeal": 5751,
      "Those": 5752,
      "Ġcircumstances": 5753,
      "EE": 5754,
      "road": 5755,
      "Ġsore": 5756,
      "ulty": 5757,
      "Ġsplend": 5758,
      "Ġarg": 5759,
      "Ġweeke": 5760,
      "Ġwondering": 5761,
      "Ġhorsie": 5762,
      "ournament": 5763,
      "ĠBraz": 5764,
      "AC": 5765,
      "Con": 5766,
      "Lea": 5767,
      "bie": 5768,
      "Ã¤": 5769,
      "Ġcad": 5770,
      "Ġmama": 5771,
      "Ġfuss": 5772,
      "orge": 5773,
      "Ġpump": 5774,
      "ste": 5775,
      "Ġdey": 5776,
      "rying": 5777,
      "useum": 5778,
      "asty": 5779,
      "Ġbiggest": 5780,
      "ĠMayenne": 5781,
      "ĠRoad": 5782,
      "Ġmagazine": 5783,
      "Man": 5784,
      "ĠBa": 5785,
      "Ġmarriage": 5786,
      "Ġbeauty": 5787,
      "Ġlanguages": 5788,
      "Ġveh": 5789,
      "Ġproperty": 5790,
      "ĠPilchard": 5791,
      "Ġtip": 5792,
      "hew": 5793,
      "Ġmale": 5794,
      "Ġboats": 5795,
      "Ġqueer": 5796,
      "ĠVan": 5797,
      "Ġdesper": 5798,
      "Ġreceive": 5799,
      "Ġfailed": 5800,
      "Ġseparate": 5801,
      "Ġtarget": 5802,
      "Ġestablished": 5803,
      "Act": 5804,
      "ube": 5805,
      "isse": 5806,
      "Ġinternational": 5807,
      "EST": 5808,
      "ĠBlue": 5809,
      "Everything": 5810,
      "Ġshouted": 5811,
      "Chi": 5812,
      "making": 5813,
      "Ġbisc": 5814,
      "Ġyards": 5815,
      "Ġcy": 5816,
      "icans": 5817,
      "Ġselected": 5818,
      "Ġaside": 5819,
      "ĠRel": 5820,
      "Ġbranch": 5821,
      "Ġunknown": 5822,
      "Ġtend": 5823,
      "Ġjobs": 5824,
      "ĠTHIS": 5825,
      "ĠKingdom": 5826,
      "Ġpressure": 5827,
      "Ġelectric": 5828,
      "ĠItaly": 5829,
      "Ġperformance": 5830,
      ";\"": 5831,
      "Call": 5832,
      "ias": 5833,
      "Ġcal": 5834,
      "Ġpizza": 5835,
      "Ġnative": 5836,
      "ĠHAVE": 5837,
      "Ġspin": 5838,
      "aging": 5839,
      "Ġprove": 5840,
      "ontin": 5841,
      "azed": 5842,
      "Ġtotally": 5843,
      "Ġcurrently": 5844,
      "Dad": 5845,
      "Fine": 5846,
      "mark": 5847,
      "Ġaim": 5848,
      "Ġhook": 5849,
      "Ġthir": 5850,
      "ĠCourt": 5851,
      "rol": 5852,
      "Ġagent": 5853,
      "Ġtribe": 5854,
      "gypt": 5855,
      "Ġperformed": 5856,
      "ĠGeorgia": 5857,
      "NOW": 5858,
      "Tilda": 5859,
      "Ġwished": 5860,
      "Ġreasons": 5861,
      "ĠMaster": 5862,
      "Ġsection": 5863,
      "ĠDolly": 5864,
      "ĠLake": 5865,
      "Ġhurried": 5866,
      "Ġcookies": 5867,
      "Ġadvice": 5868,
      "ĠDemocratic": 5869,
      "Something": 5870,
      "Ġcam": 5871,
      "Ġthy": 5872,
      "ĠMal": 5873,
      "ĠSal": 5874,
      "ĠPays": 5875,
      "ellig": 5876,
      "ĠFirst": 5877,
      "Ġamb": 5878,
      "Ġremoved": 5879,
      "ĠChief": 5880,
      "Ġinterview": 5881,
      "ological": 5882,
      "ĠChampionship": 5883,
      "Dr": 5884,
      "boy": 5885,
      "tin": 5886,
      "uits": 5887,
      "ooke": 5888,
      "Ġdoggy": 5889,
      "ĠJason": 5890,
      "ĠLO": 5891,
      "Ġexciting": 5892,
      "Ġengaged": 5893,
      "Ġrequest": 5894,
      "Ġfrequ": 5895,
      "Ġ\"ï¿": 5896,
      "heast": 5897,
      "Ġpale": 5898,
      "Ġgat": 5899,
      "herry": 5900,
      "ĠWomen": 5901,
      "eme": 5902,
      "Ġdism": 5903,
      "Ġmatches": 5904,
      "Ġdreams": 5905,
      "Ġdescribed": 5906,
      "Ġentirely": 5907,
      "Ġvoices": 5908,
      "ĠFootball": 5909,
      "Ġtummy": 5910,
      "Ġduh": 5911,
      "vert": 5912,
      "illing": 5913,
      "ĠEarth": 5914,
      "Ġtrous": 5915,
      "Ġeaten": 5916,
      "Ġterrit": 5917,
      "Ġmetal": 5918,
      "ĠAfrican": 5919,
      "ĠJeff": 5920,
      "Ġdamn": 5921,
      "Ġhighest": 5922,
      "Ġindividual": 5923,
      "EB": 5924,
      "UGH": 5925,
      "then": 5926,
      "vis": 5927,
      "ĠDutch": 5928,
      "ĠEgypt": 5929,
      "Ġchampions": 5930,
      "Ġactive": 5931,
      "Three": 5932,
      "Ġartist": 5933,
      "Ġdisappeared": 5934,
      "Ġfortune": 5935,
      "Ġresults": 5936,
      "ĠRussia": 5937,
      "People": 5938,
      "while": 5939,
      "Ġwine": 5940,
      "Ġjail": 5941,
      "ĠLar": 5942,
      "iano": 5943,
      "Ġcentral": 5944,
      "Ġpositive": 5945,
      "Ġnewspaper": 5946,
      "Ġveget": 5947,
      "Ġtradition": 5948,
      "Amer": 5949,
      "Ha": 5950,
      "opher": 5951,
      "osen": 5952,
      "Ġsomehow": 5953,
      "Ġunderstood": 5954,
      "Ġhelps": 5955,
      "Ġchest": 5956,
      "ĠArmy": 5957,
      "Ġdelicious": 5958,
      "Ġmedical": 5959,
      "Ġincrease": 5960,
      "ĠRoger": 5961,
      "Le": 5962,
      "ses": 5963,
      "win": 5964,
      "itiz": 5965,
      "Ġfac": 5966,
      "oto": 5967,
      "ĠTer": 5968,
      "ĠFrost": 5969,
      "Ġadop": 5970,
      "Ġthrows": 5971,
      "aft": 5972,
      "war": 5973,
      "Ġsouthern": 5974,
      "Ġghost": 5975,
      "ĠSa": 5976,
      "Ġjoke": 5977,
      "umbo": 5978,
      "geant": 5979,
      "ĠFre": 5980,
      "rig": 5981,
      "Ġsmiled": 5982,
      "Ġdrops": 5983,
      "Ġpaying": 5984,
      "Ġfairy": 5985,
      "ĠBritain": 5986,
      "whispers": 5987,
      "anchester": 5988,
      "ĠMu": 5989,
      "ilies": 5990,
      "ĠBrown": 5991,
      "Ġtransfer": 5992,
      "III": 5993,
      "Ġdamage": 5994,
      "Ġautom": 5995,
      "Ã¶": 5996,
      "isha": 5997,
      "Ġnut": 5998,
      "Ġhes": 5999,
      "amily": 6000,
      "ĠMet": 6001,
      "Ġtalks": 6002,
      "Ġfriendly": 6003,
      "ĠBecause": 6004,
      "Ġconstit": 6005,
      "Ġjumped": 6006,
      "Ġgentlemen": 6007,
      "Ġtouched": 6008,
      "Ġideas": 6009,
      "IV": 6010,
      "cream": 6011,
      "puts": 6012,
      "ĠMill": 6013,
      "ĠFa": 6014,
      "ĠGar": 6015,
      "Ġhorrible": 6016,
      "Ġstudents": 6017,
      "Ġsweetheart": 6018,
      "ĠXX": 6019,
      "Ġgradu": 6020,
      "ĠRemi": 6021,
      "ajesty": 6022,
      "Ġtrousers": 6023,
      "fish": 6024,
      "sm": 6025,
      "itar": 6026,
      "Ġpil": 6027,
      "Ġug": 6028,
      "Ġrib": 6029,
      "Ġmel": 6030,
      "ĠRec": 6031,
      "Ġvot": 6032,
      "Ġscore": 6033,
      "Ġcommittee": 6034,
      "Ġglance": 6035,
      "Ġsignific": 6036,
      "Ġprovide": 6037,
      "Ġforever": 6038,
      "Ġissues": 6039,
      "Ġcruel": 6040,
      "aeddin": 6041,
      "ĠZealand": 6042,
      "gency": 6043,
      "Ġdesire": 6044,
      "oki": 6045,
      "Ġprovided": 6046,
      "Ġparticip": 6047,
      "Ġresponsible": 6048,
      "fers": 6049,
      "Ġmort": 6050,
      "ĠTra": 6051,
      "Ġkm": 6052,
      "ĠBull": 6053,
      "ĠDou": 6054,
      "ĠDid": 6055,
      "icking": 6056,
      "Ġadult": 6057,
      "izabeth": 6058,
      "ĠAlaeddin": 6059,
      "Ġdrawn": 6060,
      "Mrs": 6061,
      "Ġpuppy": 6062,
      "Ġinfluence": 6063,
      "ĠFrancis": 6064,
      "Jack": 6065,
      "John": 6066,
      "ridge": 6067,
      "yes": 6068,
      "Ġdust": 6069,
      "icing": 6070,
      "ĠMajor": 6071,
      "ĠAh": 6072,
      "unts": 6073,
      "ĠNOT": 6074,
      "ĠNed": 6075,
      "Ġdisp": 6076,
      "Ġends": 6077,
      "Ġentr": 6078,
      "Ġreplaced": 6079,
      "Ġbeneath": 6080,
      "ĠEdmund": 6081,
      "Hmm": 6082,
      "Ġnation": 6083,
      "ĠMAN": 6084,
      "ĠHER": 6085,
      "Ġsole": 6086,
      "ĠWent": 6087,
      "ĠWho": 6088,
      "Ġswitch": 6089,
      "Ġcutting": 6090,
      "Ġoccurred": 6091,
      "MW": 6092,
      "OH": 6093,
      "sung": 6094,
      "icated": 6095,
      "utive": 6096,
      "Ġstones": 6097,
      "umble": 6098,
      "thur": 6099,
      "Ġsecurity": 6100,
      "ĠYour": 6101,
      "Ġapparently": 6102,
      "Ġslave": 6103,
      "Ġdrunk": 6104,
      "Ġfamiliar": 6105,
      "Ġterror": 6106,
      "Ġinstr": 6107,
      "ipping": 6108,
      "Ġmountains": 6109,
      "Ġauthority": 6110,
      "ĠAlfgar": 6111,
      "Ġdegree": 6112
    }
  }
}