.": 653219
:: 572089
Ġ"*: 537043
Ġ": 513423
,: 469636
Ġthe: 380993
MOT: 248017
.: 221419
Ġyou: 202804
Ġto: 201574
?": 201561
Ġand: 195782
Ġa: 190954
CHI: 183240
Ġof: 164598
ĠI: 155121
's: 150648
Ġit: 136122
s: 134348
Ġin: 132993
Ġthat: 127570
Ġis: 91131
Ġwas: 84334
't: 82238
Ġ: 73631
Ġ=: 73302
Ġon: 69267
Ġhe: 67111
I: 62757
Ġfor: 61713
!": 57381
1: 57154
": 54357
Ġwhat: 53591
Ġwith: 51463
ing: 49042
Ġwe: 48750
Ġdo: 47859
Ġhave: 46863
Ġthis: 46471
ed: 45984
0: 44591
Ġbe: 44047
Ġnot: 43748
2: 42869
Ġat: 42531
-: 42168
Ġthere: 41560
Ġme: 41267
Ġare: 39732
Ġas: 39465
Ġ[: 39198
Ġone: 38778
Ġcan: 38512
Ġthey: 37887
Ġno: 37745
Ġhis: 36659
Ġshe: 36332
y: 35489
e: 35175
Ġher: 34049
Ġ"[: 33985
Ġyour: 33775
]": 33292
n: 32825
d: 32213
Ġknow: 32161
Ġhad: 31942
Ġmy: 31805
Ġup: 31586
Ġdon: 31278
Ġall: 31263
Ġlike: 30587
Ġgo: 30381
Ġso: 30302
Ġbut: 29423
9: 28927
're: 27904
Ġfrom: 26709
Ġout: 26677
ĠThe: 26457
...": 26446
er: 25787
Ġoh: 25357
,": 25342
Ġhim: 25304
Ġhere: 24999
'm: 24984
t: 24151
You: 24131
Ġwere: 23948
ly: 23921
r: 23817
Ġyeah: 23748
Ġget: 23448
Ġby: 22915
FAT: 22799
Ġjust: 22493
a: 22462
Ġan: 22196
Ġsee: 21713
Ġthem: 21650
A: 21558
Ġabout: 21522
': 21083
'll: 20927
Ġor: 20680
INV: 20568
].": 20490
Ġthink: 20147
Ġgot: 19914
Ġsaid: 19803
Ġif: 19677
Ġright: 19587
Ġnow: 19587
Ġdid: 18924
;: 18850
Ġwould: 18606
Ġxxx: 18560
Ġthen: 18425
Ġsome: 18280
Ġwhen: 17938
Ġwho: 17650
o: 17504
Ġ(: 17383
Ġwant: 17107
Ġwhere: 16654
Ġwill: 16541
ĠHe: 16307
Ġgood: 16216
h: 16130
B: 16102
8: 15684
Ġlook: 15677
i: 15615
Ġcome: 15612
Ġlittle: 15424
It: 15372
Ġdown: 15341
Ġgoing: 15292
've: 15231
on: 15205
Ġtime: 15089
Ġbeen: 15007
Ġback: 14968
Ġput: 14882
Ġ': 14834
Ġover: 14704
Ġmore: 14683
Ġwhich: 14657
3: 14638
Ġvery: 14578
Ġwell: 14576
5: 14351
S: 14300
What: 14186
Ġokay: 14083
Ġtwo: 14023
Ġhas: 13771
al: 13435
Ġcould: 13382
7: 13124
ĠH: 13103
): 13042
6: 12996
l: 12991
es: 12865
Ġtheir: 12843
in: 12782
4: 12668
m: 12612
ĠIt: 12594
Ġsay: 12413
Ġhow: 12345
And: 12294
p: 12169
No: 12077
ĠA: 11819
EXP: 11427
ĠP: 11391
Ġgonna: 11315
Ġother: 11279
Ġmake: 11093
Oh: 11085
Ġinto: 11001
Ġer: 10937
The: 10865
Ġyes: 10844
Ġlet: 10828
E: 10676
Ġtoo: 10627
Ġoff: 10605
k: 10603
le: 10550
Ġtake: 10519
ti: 10265
We: 10113
Ġman: 10104
Yeah: 10036
ic: 10034
Ġway: 10021
PAR: 9986
]: 9947
Ġpeople: 9890
ion: 9882
w: 9797
Ġany: 9772
T: 9664
Ġfirst: 9438
an: 9299
C: 9103
ce: 9085
He: 8987
or: 8964
That: 8948
ĠIn: 8901
M: 8840
st: 8807
ie: 8745
Ġus: 8713
ia: 8592
us: 8566
Ġbecause: 8486
Ġmuch: 8472
Ġdidn: 8429
Ġonly: 8412
Well: 8409
Ġtell: 8382
ĠC: 8306
Ġour: 8299
ĠK: 8298
b: 8293
Ġreally: 8185
Ġthese: 8177
P: 8140
u: 8107
ch: 8083
ĠD: 8077
Ġagain: 8028
Ġsomething: 7990
ĠL: 7989
D: 7883
it: 7877
Ġmade: 7833
nt: 7804
Ġthan: 7783
ĠS: 7753
Ġwhy: 7743
Yes: 7739
Ġam: 7713
f: 7705
Ġshould: 7676
ĠShe: 7664
Ġafter: 7650
g: 7611
Ġwanna: 7574
But: 7532
'd: 7488
ĠF: 7434
th: 7422
--: 7419
ĠR: 7406
Ġuh: 7401
L: 7389
is: 7386
ĠT: 7336
ĠW: 7317
ĠN: 7305
Ġneed: 7248
Ġthree: 7225
...: 7200
Ġbefore: 7198
te: 7185
Ġaway: 7155
N: 7150
Ġplay: 7110
Ġthose: 7080
ta: 6958
So: 6955
Ġdoes: 6907
ment: 6891
Ġmean: 6888
Ġum: 6884
Ġdoing: 6877
Ġun: 6856
Ġwent: 6852
ers: 6828
Ġday: 6795
O: 6795
Ġnever: 6719
la: 6717
Ġalso: 6585
ĠV: 6572
ies: 6568
F: 6550
Ġthing: 6522
ation: 6507
en: 6481
Ġhome: 6468
Ġlong: 6462
Ġcame: 6453
Ġbig: 6375
R: 6360
ar: 6346
Ġ"%: 6339
et: 6339
Ġadd: 6334
½: 6331
Ġwork: 6308
Ġthings: 6287
Ġanother: 6216
Ġthought: 6214
na: 6205
li: 6197
Ġgive: 6190
.]": 6183
Ġmust: 6081
ĠO: 5997
Ġdone: 5986
ra: 5972
ng: 5968
re: 5911
H: 5898
Ġthrough: 5881
Ġold: 5876
Ġboy: 5873
Ġhouse: 5830
/: 5829
c: 5811
Ġbaby: 5810
Ġbit: 5799
Ġstill: 5740
ur: 5740
sh: 5730
Ġfind: 5723
Ġlast: 5695
ll: 5684
Y: 5682
Ġcar: 5677
Ġhead: 5633
ĠG: 5622
Ġmany: 5602
el: 5566
Ġname: 5534
ve: 5529
ck: 5508
!: 5452
Ġwon: 5448
Ġhand: 5443
Ġgreat: 5430
GMA: 5428
to: 5420
ry: 5417
de: 5413
Ġmight: 5403
Ġgirl: 5355
un: 5297
ĠE: 5265
Ġnight: 5256
me: 5252
Ġeven: 5233
ate: 5214
ine: 5213
ge: 5213
ter: 5207
ive: 5175
Ġmother: 5163
ĠThey: 5131
Ġhelp: 5125
laughs: 5119
Ġah: 5119
ĠMr: 5115
am: 5100
at: 5096
ure: 5087
and: 5023
as: 4988
ay: 4961
man: 4955
Ġre: 4948
Ġown: 4931
Ġcalled: 4923
ĠM: 4918
ir: 4915
est: 4903
Ġbetter: 4869
BRO: 4869
Ġlife: 4860
Ġlove: 4856
Ġnew: 4843
Ġused: 4830
Ġwater: 4820
ss: 4814
Ġlooks: 4809
ig: 4790
Ġfound: 4785
Ġaround: 4781
Ġbeing: 4774
Ġsuch: 4764
id: 4763
G: 4762
Ġerm: 4761
Ġsure: 4748
ist: 4748
Ġnice: 4734
Ġisn: 4732
Ġst: 4711
Ġbook: 4709
Ġyears: 4700
Ġbo: 4695
Ġplace: 4672
im: 4667
Ġits: 4665
Ġpart: 4654
ma: 4637
ĠB: 4637
They: 4631
Ġunder: 4622
Ġfour: 4619
Ġanything: 4591
ĠJ: 4590
_: 4584
How: 4579
She: 4576
MCH: 4560
z: 4547
Ġeat: 4543
ad: 4523
nd: 4521
Ġo: 4517
K: 4486
Ġmay: 4485
Ġsame: 4470
Ġkind: 4456
Ġmost: 4447
ent: 4424
um: 4413
?: 4405
Ġwhile: 4404
se: 4390
Ġdoesn: 4385
Ġshall: 4383
Ġn: 4382
Ġd: 4380
ian: 4376
Ġw: 4346
ĠAnd: 4338
ĠSo: 4332
ĠBut: 4330
ĠU: 4327
Ġplease: 4318
This: 4317
Ġsp: 4304
ba: 4300
Ġroom: 4287
ant: 4272
ity: 4243
Ġnext: 4239
Ġuse: 4230
Ġmen: 4229
Ġtold: 4216
ne: 4203
Ġlot: 4202
ro: 4202
ns: 4183
Ġelse: 4140
Why: 4135
J: 4113
W: 4105
SIS: 4103
If: 4091
NAN: 4082
ri: 4050
ug: 4040
ĠSt: 4035
There: 4033
Ġmhm: 4030
ut: 4011
ho: 4004
Ġleft: 4002
Ġalways: 4000
Do: 3999
Ġface: 3987
lo: 3952
Ġt: 3948
Ġkeep: 3931
Ġend: 3918
il: 3901
rd: 3895
ĠMummy: 3852
Ġthank: 3851
Ġfather: 3834
x: 3827
Ġ_: 3817
Ġgone: 3813
ip: 3812
Ġtalk: 3806
Ġschool: 3806
ea: 3806
ling: 3801
able: 3773
Ġsit: 3769
em: 3762
Ġmoney: 3758
Ġtook: 3755
Ġsaw: 3741
ca: 3740
Ġquite: 3733
co: 3723
Ġp: 3718
Ġfive: 3706
ĠCHI: 3668
the: 3666
Ġgoes: 3659
Ġhm: 3646
".: 3642
Ġdis: 3641
Ġsec: 3640
Don: 3636
Ġhear: 3624
Ġtry: 3622
Ġshow: 3610
ton: 3597
Ġevery: 3593
ag: 3592
ful: 3590
ow: 3587
ĠBo: 3585
Ġball: 3577
Ġlo: 3557
os: 3556
ĠThis: 3546
Ġenough: 3539
Ġbox: 3534
Ġsorry: 3526
ab: 3517
Ġcourse: 3516
Ġsays: 3513
ĠAl: 3511
Ġthough: 3507
Ġuntil: 3502
U: 3493
Ġhuh: 3484
ï¿: 3482
Ġcoming: 3476
Ġg: 3469
ee: 3460
ol: 3458
Ġhard: 3458
ĠAs: 3456
Ġever: 3455
Ġdoor: 3430
Ġco: 3419
Ġf: 3418
ĠTHE: 3418
tr: 3413
vi: 3411
Ġside: 3406
mo: 3406
Ġtoday: 3386
ĠJohn: 3379
Ġturn: 3374
Okay: 3364
ĠBa: 3358
Ġeyes: 3356
Ġknown: 3352
ap: 3341
Ġla: 3334
Ġdear: 3332
Ġyear: 3323
Ġred: 3321
da: 3321
Ġcall: 3319
op: 3313
Ġde: 3312
Ġfew: 3312
Now: 3309
Ġnothing: 3304
Ġread: 3300
Ġchild: 3299
Ġbest: 3295
rs: 3293
ish: 3288
Ġasked: 3284
TEA: 3276
ĠDe: 3266
ĠYou: 3257
ated: 3255
ary: 3252
all: 3251
Ġra: 3249
Ġopen: 3240
Ġremember: 3239
Ġyet: 3233
be: 3225
Ġmorning: 3224
ĠThere: 3223
Ġi: 3222
Ġseen: 3219
ĠMOT: 3209
Ġchildren: 3204
our: 3201
Come: 3201
Ġfar: 3195
Ġhafta: 3192
Ġdifferent: 3191
ah: 3191
Ġupon: 3189
Ġstop: 3183
ĠMiss: 3172
ick: 3166
ĠMrs: 3164
Ġcl: 3160
Ġfeel: 3151
Ġleave: 3145
ness: 3139
Ġround: 3137
Ġbed: 3129
ice: 3125
Ġhands: 3121
Ġmind: 3118
Ġlooking: 3109
ĠWe: 3094
Ġtogether: 3085
V: 3079
no: 3079
Ġgetting: 3077
ĠAmerican: 3076
ke: 3073
Ġhi: 3066
ons: 3059
Ġha: 3056
ire: 3036
ĠTo: 3031
Let: 3030
ble: 3027
ted: 3024
Ġtable: 3021
ise: 3019
ph: 3014
Ġtop: 3000
Ġbad: 2996
ey: 2996
In: 2992
Ġwar: 2992
ĠNew: 2987
Ġhimself: 2973
ING: 2973
Ġrest: 2971
Ġfire: 2970
ts: 2969
Ġc: 2962
mp: 2962
Ġonce: 2960
ĠLa: 2948
gr: 2939
Ġwait: 2938
Ġbetween: 2932
der: 2929
Ġj: 2928
Ġboth: 2927
Ġv: 2924
).: 2910
FCH: 2894
Ġdi: 2889
ty: 2888
Ġheart: 2886
Ġsix: 2883
son: 2883
Ġlight: 2882
Ġhigh: 2879
Mm: 2877
ci: 2875
Ġeach: 2875
Ġhaving: 2873
Hey: 2868
Ġheard: 2866
age: 2862
ul: 2858
cause: 2854
Ġhalf: 2851
Ġlater: 2850
Ġcare: 2850
Ġmm: 2846
ot: 2842
Ġyoung: 2839
Ġwithout: 2836
Ġreal: 2833
Ġready: 2827
Ġten: 2823
ance: 2814
ĠY: 2813
Ġmaking: 2809
Ġnoise: 2809
Ġch: 2805
ĠMa: 2793
Ġchair: 2788
Ġworld: 2786
Ġalright: 2780
Ġsoon: 2780
Ġr: 2779
Ġsort: 2777
Ġask: 2768
ver: 2767
we: 2766
Ġfl: 2758
ib: 2758
Ġm: 2757
Ġsecond: 2753
Ġgra: 2752
ha: 2748
Is: 2748
Ġpretty: 2746
Ġknew: 2742
Ġsl: 2739
Ġagainst: 2732
Ġmoment: 2730
less: 2728
ue: 2726
Ġdied: 2726
Ġlooked: 2725
All: 2721
Ġpoint: 2715
Ġclose: 2714
Ġwatch: 2712
Ġli: 2711
Ġset: 2707
Ġstay: 2705
Ġhappened: 2704
Ġnear: 2704
Ġmaybe: 2703
ĠFa: 2700
ast: 2698
Ġwanted: 2694
Ġeverything: 2689
Ġtalking: 2683
ical: 2679
om: 2677
Ġhaven: 2672
ial: 2668
Ġlive: 2665
Ġ"âĻª: 2664
Ġnumber: 2651
hi: 2648
Ġsa: 2635
Ã: 2635
Ġblack: 2634
Ġhey: 2632
ous: 2631
va: 2628
Ġta: 2626
My: 2626
Ġrun: 2613
ting: 2610
",: 2607
Who: 2606
Ġsmall: 2599
Ġhope: 2576
j: 2573
Ġbelieve: 2571
ĠCo: 2566
Ġma: 2554
ill: 2551
Are: 2551
Ġe: 2549
ĠAn: 2544
so: 2544
Ġactually: 2543
ĠDaddy: 2539
ak: 2539
ny: 2538
Ġgave: 2534
one: 2532
Ġru: 2526
Ġborn: 2523
Ġï¿: 2522
ite: 2521
les: 2521
Ġfriend: 2505
Ġdays: 2504
Ġgame: 2499
ight: 2495
Ġfamily: 2494
ĠOn: 2493
ya: 2491
ĠLo: 2489
Ġstart: 2483
Ġro: 2473
Ġcat: 2473
Ġfood: 2472
AR: 2464
pt: 2451
ĠSu: 2450
ide: 2448
Ġwhole: 2442
Ġtrying: 2437
Ġpe: 2432
ard: 2427
ĠUnited: 2424
Ġsince: 2423
Ġpaper: 2418
do: 2418
ĠFor: 2417
Ġya: 2412
Ġda: 2407
Ġgu: 2407
Ġfe: 2405
Ġmatter: 2403
Ġbring: 2402
Ġstory: 2401
ĠTh: 2396
Ġalong: 2392
up: 2392
ile: 2392
Ġboys: 2391
ina: 2388
ĠAt: 2386
ub: 2378
Ġfact: 2377
Ġalmost: 2369
To: 2368
ĠGod: 2366
Ġwasn: 2365
Ġb: 2364
Ġpo: 2360
Ġsleep: 2359
ĠAr: 2352
Where: 2351
GRA: 2348
ĠLe: 2344
Thank: 2342
ac: 2338
ess: 2332
ct: 2331
ĠCon: 2330
Just: 2327
ern: 2325
Ġse: 2320
Ġhold: 2318
Ġste: 2317
Ġblue: 2315
Ġfa: 2314
Ġsh: 2309
Ġunderstand: 2305
),: 2300
br: 2296
io: 2284
Ġmine: 2280
Ġson: 2279
Ġcomes: 2268
Ġsaying: 2267
Ġconf: 2267
Ġsc: 2266
ach: 2265
Be: 2265
Ġk: 2259
Ġstarted: 2257
ps: 2254
+: 2252
Ġass: 2251
Ġalready: 2247
qu: 2247
ĠNo: 2246
que: 2244
Ġcons: 2241
ĠBen: 2241
Ġmove: 2240
ki: 2237
Ġage: 2236
sp: 2235
ain: 2234
ua: 2232
pe: 2231
Ġguess: 2230
Ġcity: 2229
Ġstuff: 2226
Ġdarling: 2224
Ġdog: 2223
Ġperson: 2222
ud: 2220
ĠSa: 2217
led: 2214
Ġs: 2204
Ġcut: 2202
Ġhair: 2202
Ġwouldn: 2200
red: 2193
ning: 2186
Ġmusic: 2184
ins: 2184
ĠDo: 2183
Ġplaying: 2181
Ġprobably: 2173
Ġwhite: 2163
Ġidea: 2156
Ġbear: 2155
ze: 2155
Ġvoice: 2155
Ġland: 2152
sc: 2143
Ġtimes: 2142
ls: 2141
Ġword: 2138
Ġfun: 2136
Ġwoman: 2136
ily: 2135
Ġplayed: 2133
Ġwrong: 2129
Ġfeet: 2128
Ġgr: 2125
ĠBr: 2125
Ġy: 2121
Ġair: 2121
Ġpresent: 2117
Right: 2116
Good: 2114
Ġfloor: 2110
Ġmo: 2107
Ha: 2102
Ġtrain: 2101
Ġminute: 2096
ks: 2094
Ġfriends: 2088
Ġpre: 2087
Ġcomp: 2086
ĠTe: 2086
Ġstate: 2082
go: 2081
int: 2081
lt: 2079
per: 2077
Look: 2073
Ġfine: 2071
ĠStates: 2071
ust: 2068
Ġduring: 2062
Ġl: 2061
Not: 2058
Ġbl: 2058
IN: 2058
day: 2054
Can: 2053
ga: 2052
Ġstand: 2051
Ġran: 2050
ump: 2049
ory: 2049
Ġcountry: 2047
Ġmet: 2043
Ġpick: 2043
Ġpoor: 2041
ĠBe: 2041
ita: 2038
Ġfull: 2038
Ġmeans: 2036
KF: 2030
Ġwin: 2028
Ġgl: 2027
ĠNe: 2025
ĠSe: 2021
way: 2020
Ġhurt: 2019
Ġab: 2018
Ġth: 2017
Ġshort: 2015
Ġcolor: 2013
by: 2010
Ġlost: 2008
Ġpro: 2008
Ġstick: 2004
Ġgotta: 2002
Go: 1999
Ġmovie: 1993
Ġbrought: 1992
pa: 1991
Ġbecame: 1991
ĠMe: 1990
Ġsir: 1988
Ġdeath: 1988
ose: 1983
Ġimp: 1981
he: 1981
Ġline: 1981
ĠCr: 1978
Ġyourself: 1977
Ġfr: 1977
child: 1976
ĠThen: 1976
Ġseemed: 1975
Ġhappy: 1974
Ġtown: 1974
ĠHis: 1974
Ġones: 1973
AT: 1972
Ġwrite: 1970
Ġrather: 1967
cha: 1960
bo: 1960
Ġgreen: 1958
ĠWhen: 1957
Ġjob: 1955
Ġqu: 1954
Then: 1954
Ġtra: 1951
Ġal: 1950
ER: 1950
Ġhundred: 1943
ru: 1938
Ã©: 1938
Ġho: 1936
OR: 1934
Ġteam: 1934
Ġca: 1931
ally: 1929
ĠâĢĵ: 1925
Ġspeak: 1922
Ġgirls: 1921
Ġturned: 1920
out: 1917
ame: 1916
Ġweek: 1910
Ġbegan: 1910
ĠMar: 1908
Ġbreak: 1908
od: 1908
Ġaren: 1907
ier: 1905
ĠUh: 1903
Ġpl: 1901
Ġdrink: 1900
Ġlea: 1899
ĠKe: 1895
Ġwords: 1894
Ġpass: 1894
ĠGr: 1894
AN: 1891
ake: 1888
Ġsound: 1888
ors: 1887
ĠZ: 1887
Ġmouth: 1884
ka: 1882
Ġoutside: 1879
ĠTom: 1879
Ġdaddy: 1878
Ġfront: 1872
ign: 1869
ec: 1868
Ġmakes: 1867
ions: 1867
ja: 1864
Ġtea: 1859
ob: 1857
mon: 1856
Ġlady: 1854
Ġmyself: 1853
Ġtaken: 1851
]?": 1850
ied: 1850
ĠRe: 1848
dd: 1847
Ġparty: 1847
Ġsw: 1846
ĠHar: 1845
Ġhot: 1843
Ġwish: 1842
Ġable: 1841
ĠOh: 1837
ĠSp: 1836
end: 1835
Ġwalk: 1833
Ġrec: 1832
oo: 1831
Ġ-: 1830
ĠYork: 1828
Ġlate: 1827
Ġarea: 1827
When: 1827
Ġwants: 1824
RE: 1824
cy: 1821
Ġbehind: 1818
Ġcha: 1813
Ġres: 1810
Ġdead: 1806
ring: 1805
Ġsun: 1802
ora: 1800
Ġfall: 1797
Ġsea: 1797
ĠJo: 1796
Ġpay: 1794
Ġstar: 1790
ĠCar: 1790
Ġbar: 1789
Ġcur: 1786
und: 1784
Ġtaking: 1782
her: 1781
ĠRo: 1780
Ġcont: 1779
Ġpen: 1779
ĠBu: 1778
Did: 1778
Ġdeal: 1776
ack: 1774
Ġfunny: 1773
Ġhit: 1773
Ġless: 1770
king: 1769
St: 1769
unt: 1768
Ġrel: 1766
DAD: 1766
ind: 1765
Ġcase: 1765
Ġeight: 1764
ana: 1762
Ġfelt: 1760
ition: 1758
Ġgiven: 1757
Ġsub: 1756
Ġins: 1756
Ġbusiness: 1754
Ġoften: 1753
you: 1753
ĠTr: 1750
ution: 1747
Ġtoys: 1745
ica: 1745
my: 1742
Ġbrother: 1741
Ġkill: 1741
ung: 1741
Ġfish: 1740
Ġfell: 1740
mb: 1738
ĠGra: 1737
Ġrecord: 1737
ass: 1736
Ġago: 1732
Ġanimals: 1732
Ġminutes: 1730
ft: 1729
wn: 1729
Ġmommy: 1724
ĠMo: 1721
ious: 1721
ĠMommy: 1719
ĠMan: 1718
Ġguys: 1715
Ġsister: 1712
Ġchange: 1709
ĠTO: 1709
ence: 1708
oc: 1708
ĠBomba: 1708
Ġsometimes: 1704
Ġchi: 1704
Ġquestion: 1704
Ġpicture: 1703
ep: 1702
Ġfree: 1701
ual: 1701
ink: 1697
ĠFebruary: 1696
ans: 1695
Ġ"': 1693
iss: 1692
Ġtwenty: 1682
Ġduck: 1680
ĠFraser: 1678
dy: 1678
Erm: 1676
Ġsent: 1670
Ġcomm: 1670
Ġeither: 1667
ath: 1665
ations: 1664
Ġseat: 1662
ik: 1662
Ġcold: 1661
Ġbu: 1659
ert: 1658
Ġtill: 1657
Ġbeautiful: 1656
Ġdraw: 1655
bl: 1655
Ġleast: 1655
ĠPe: 1654
Ġseven: 1653
uck: 1651
Ġsomeone: 1648
Ġcouldn: 1645
Ġpar: 1643
Ġyellow: 1643
Ġpiece: 1642
Ġpa: 1640
ham: 1635
Ġhello: 1633
ĠBart: 1632
nes: 1630
Ġmeet: 1630
Ġaw: 1629
Ġboat: 1625
Ġinter: 1624
ces: 1624
huh: 1622
ort: 1611
she: 1605
ĠMay: 1605
Ġtri: 1604
Ġform: 1603
row: 1602
ĠDr: 1602
Ġhorse: 1601
Ġfast: 1601
wh: 1601
Ġbr: 1600
Ġdat: 1597
Ġstrong: 1597
Ġbuy: 1595
gu: 1594
ĠGu: 1594
Ġriver: 1593
Ġfit: 1591
ber: 1590
Ġinside: 1588
ond: 1588
Ġdinner: 1588
For: 1588
Ġlarge: 1587
Ġpush: 1587
Ġroad: 1587
Ġcup: 1586
Ġdes: 1586
Ġguy: 1586
uh: 1586
ĠGo: 1586
v: 1585
Ġtouch: 1584
Ġsk: 1582
ope: 1580
Ġchance: 1580
Ġref: 1579
ĠHer: 1579
Ġarm: 1577
Ġbooks: 1577
born: 1577
ĠYeah: 1576
Ġtrue: 1575
ley: 1574
gh: 1574
ster: 1571
av: 1571
Ġwife: 1571
Get: 1569
Ġalone: 1568
ved: 1561
Ġinc: 1561
Ġherself: 1559
Ġothers: 1559
Ġar: 1559
Ġbody: 1558
ld: 1555
ok: 1553
Ġdark: 1553
ating: 1552
Ġdel: 1552
ner: 1552
fa: 1550
Ġlisten: 1549
ĠCounty: 1549
Ã¡: 1547
Ġwash: 1546
ned: 1544
Ġcount: 1542
side: 1542
ings: 1540
Ġmar: 1539
Ġh: 1539
Ġground: 1538
Ah: 1538
Ġimportant: 1537
ĠâĻª": 1537
ong: 1536
ris: 1536
ward: 1534
ron: 1534
Ġreason: 1532
Sh: 1532
Ġtrouble: 1531
ove: 1530
Ġcheck: 1530
Ġboo: 1529
Your: 1529
Ġclean: 1528
Ġletter: 1528
Ġtree: 1527
min: 1527
land: 1527
Ġconc: 1525
ĠBessie: 1525
ĠYOU: 1524
ĠAll: 1521
ĠEl: 1520
Ġphone: 1518
ments: 1518
Ġbus: 1516
ore: 1513
ured: 1512
ger: 1509
Ġhat: 1508
als: 1508
ĠSh: 1507
Ġsign: 1505
Er: 1505
den: 1504
Ġfinished: 1501
Ġworking: 1501
Ġgets: 1499
ĠIf: 1499
ves: 1497
vo: 1496
Ġgrand: 1493
Ġne: 1492
ĠEd: 1492
uch: 1491
Ġbase: 1489
Ġlay: 1488
nel: 1488
ures: 1488
mer: 1487
Ġfoot: 1486
Ġstri: 1481
cle: 1479
Ġen: 1478
Ġyours: 1476
og: 1473
ari: 1469
Ġpast: 1468
Ġdad: 1467
ving: 1464
Ġclear: 1463
cl: 1459
Ġorder: 1459
ible: 1458
han: 1458
air: 1456
ven: 1455
Ġinte: 1455
Ġtried: 1454
Ġamong: 1453
Ġpage: 1451
ini: 1448
ute: 1448
Ġearly: 1446
ipp: 1445
ĠDavid: 1445
Ġmain: 1445
Ġsweet: 1444
Ġpu: 1443
au: 1443
Ġbecome: 1442
az: 1440
Ġacross: 1439
ade: 1437
Ġsitting: 1436
time: 1435
Ġpower: 1435
Ġglad: 1430
ell: 1429
Ġwonder: 1428
ĠPhil: 1428
mm: 1427
line: 1425
ash: 1424
Ġproblem: 1424
Ġplan: 1424
ĠEnglish: 1422
URS: 1421
LE: 1419
ĠEleanor: 1419
Ġdisc: 1418
ĠSouth: 1415
Ġinv: 1414
ĠNorth: 1413
Ġroll: 1412
are: 1412
Ġsha: 1411
Ġpull: 1409
Ġfootball: 1409
Ġdaughter: 1408
pp: 1408
oe: 1408
Ġmilk: 1407
act: 1407
Ġper: 1407
Ġdistrict: 1407
Ġsomebody: 1406
ail: 1403
Here: 1400
Ġwa: 1399
ĠAfter: 1399
IS: 1397
ler: 1396
Ġdiv: 1396
ged: 1396
ĠJanuary: 1396
.': 1394
ĠPer: 1393
Ġanswer: 1392
ĠIs: 1389
ula: 1388
art: 1387
Ġpot: 1386
ound: 1385
Ġsilver: 1384
iv: 1383
Ġclass: 1383
ich: 1380
Ġattack: 1380
Ġint: 1379
pr: 1378
Ġblow: 1378
Ġ.: 1376
Ġnine: 1375
Ġlived: 1374
Ġthousand: 1374
iff: 1374
Ġbag: 1372
ang: 1372
Ġseems: 1371
ities: 1370
Ġsong: 1366
ume: 1365
Ġdefe: 1365
ped: 1364
ĠThat: 1363
lly: 1360
Ġkiss: 1359
Ġdie: 1358
ĠCl: 1357
Ġleg: 1357
but: 1357
ĠPri: 1357
MA: 1356
Ġpolice: 1353
ĠSha: 1353
Ġheld: 1349
Ġknows: 1348
Ġtomorrow: 1347
Ġhour: 1347
Ġwr: 1346
Ġgi: 1344
Ġwind: 1342
Ġseveral: 1341
Ġthinking: 1341
Ġgroup: 1340
Ġvisit: 1339
Ġkilled: 1338
Ġappro: 1337
let: 1336
ere: 1333
Ġcow: 1332
Ġche: 1332
Ġtakes: 1331
ĠJane: 1331
Ġsal: 1329
Ġbi: 1327
Ġcatch: 1327
Ġseries: 1323
Ġsing: 1322
Ġnose: 1321
ĠPro: 1321
Ġmom: 1320
lu: 1318
Ġdist: 1315
Ġdoctor: 1314
Se: 1314
ĠAm: 1313
Ġfight: 1312
ics: 1312
men: 1311
ĠEm: 1310
ets: 1310
Ġreport: 1310
Because: 1309
As: 1306
Ġtoy: 1305
ale: 1304
Ġflo: 1304
Ġsend: 1303
Ġperhaps: 1301
Ġcompany: 1300
ai: 1300
Ġsat: 1299
eg: 1299
ient: 1297
www: 1297
ĠNovember: 1296
Ġlie: 1295
Ġlad: 1295
Ġlovely: 1295
Ġacc: 1294
ars: 1293
Ġooh: 1293
ĠWar: 1292
ix: 1291
ĠJoe: 1287
Ch: 1287
ĠCO: 1285
ĠCla: 1285
Ġdress: 1284
ĠOF: 1284
Ġkid: 1283
De: 1282
ff: 1281
Ġve: 1281
Ġstation: 1280
Ġexp: 1278
friend: 1277
Ġsqu: 1276
ara: 1275
za: 1275
Ġdrive: 1273
ping: 1273
Ġliving: 1272
Ġspecial: 1272
iz: 1272
ever: 1271
Ġkept: 1270
Ġrock: 1269
ative: 1269
ĠWest: 1269
Ġhappen: 1268
Ġmin: 1268
singing: 1268
Ġcause: 1268
ism: 1267
Ġwear: 1264
ush: 1263
Ġpan: 1262
Ġusually: 1262
Ġafraid: 1261
Ġain: 1261
IT: 1261
Ġwow: 1260
Ġtr: 1259
Hi: 1258
ker: 1258
Have: 1258
Ġpoints: 1256
Ġbirthday: 1255
over: 1255
Ġact: 1255
ama: 1253
pl: 1252
Ġex: 1250
Ġuhhuh: 1249
Ġice: 1249
ĠSteven: 1248
aw: 1246
Ġcounty: 1246
Ġpat: 1244
Ġride: 1244
uc: 1244
ome: 1243
ĠMc: 1243
Ġstraight: 1242
ĠBar: 1242
lla: 1242
ex: 1240
ĠMaggie: 1240
ĠOne: 1240
Ġreturn: 1239
Ġfat: 1239
Ġcover: 1238
Ġseem: 1238
ĠMama: 1238
Ġrain: 1238
Ġ*: 1238
Ġlearn: 1235
Ġforward: 1235
ĠChi: 1235
Ġlots: 1233
ĠCha: 1233
Ġle: 1232
Ġrunning: 1231
X: 1228
ĠAb: 1228
ĠDan: 1227
Ġac: 1227
ĠBro: 1227
bs: 1226
Ġcharacter: 1226
ium: 1226
Ġmember: 1225
ike: 1224
ĠWorld: 1224
tle: 1223
ric: 1222
Ġpig: 1221
Th: 1221
Ġseason: 1221
Of: 1220
Ġow: 1219
Ġwee: 1218
Ġwithin: 1218
ĠSome: 1217
rel: 1216
ON: 1216
Ġfear: 1216
Please: 1216
Ġeating: 1214
ĠJack: 1213
Ġoo: 1212
Ġbuilding: 1211
Ġmillion: 1211
fe: 1210
its: 1209
Ġmonths: 1209
Ġfield: 1208
Ġmiss: 1206
Ġcross: 1205
Br: 1204
RI: 1204
Ġhours: 1204
Al: 1201
ane: 1201
Ġcareful: 1199
Ġstood: 1198
of: 1198
Ġworked: 1198
âĢĶ: 1198
ĠWhat: 1197
Ġthrow: 1195
ace: 1195
Ġnamed: 1194
Ġcannot: 1193
iti: 1193
makes: 1192
oke: 1190
Ġwhether: 1186
Ġking: 1186
Ġcor: 1186
Ġbreath: 1185
ĠJuly: 1185
ĠApril: 1183
Re: 1182
Ġmarried: 1181
ĠPat: 1181
Ġwomen: 1180
Ġtired: 1179
Ġlives: 1179
Ġtrans: 1178
Ġring: 1175
Ġcried: 1175
Mr: 1175
Ġeverybody: 1172
Ġthemselves: 1172
Ġcouple: 1171
ging: 1170
ank: 1170
Ġsuppose: 1169
Ġanswered: 1169
Ġclothes: 1168
RO: 1168
Ġart: 1167
Me: 1165
Ġsupport: 1164
Ġjump: 1163
Ġconv: 1163
Ġtre: 1163
Ġpop: 1161
nie: 1161
Ġeye: 1157
arr: 1155
Ġlist: 1155
ered: 1155
Ġ"": 1153
OU: 1153
ms: 1152
Ġwh: 1147
ĠPaul: 1147
âĢĵ: 1147
ates: 1146
Ġpassed: 1146
Ġpretend: 1144
Ġbas: 1144
Ġband: 1143
ime: 1143
ith: 1143
ĠOctober: 1142
ten: 1141
Ġnational: 1141
Ġcr: 1140
Ġoffice: 1140
,': 1139
Ġeasy: 1138
ĠOr: 1138
ced: 1137
Ġpost: 1136
ĠSIS: 1136
use: 1135
yn: 1135
Ġbroken: 1134
Ġapp: 1131
Ġbath: 1131
Ġrefer: 1130
Ġpossible: 1130
ists: 1129
Ġgovernment: 1129
ord: 1128
--": 1127
ĠWell: 1127
Ġill: 1126
ino: 1125
EN: 1125
cc: 1124
Ġsystem: 1124
res: 1123
ĠX: 1123
Ġtape: 1122
ĠKing: 1122
Ġfeeling: 1121
Ġtelevision: 1120
mother: 1119
Ġsounds: 1119
Ġputting: 1118
Ġmess: 1117
ther: 1115
Ġcool: 1114
Ġsm: 1113
ĠMichael: 1110
Ġmonkey: 1110
Ġregion: 1110
Ġshot: 1109
oy: 1106
pre: 1106
ĠFrance: 1106
Ġcra: 1105
CH: 1103
Ġtw: 1102
ress: 1101
ĠJapan: 1101
ĠEdna: 1100
ines: 1097
Ġstreet: 1096
ĠSeptember: 1094
urn: 1092
Ġdifficult: 1090
Ġfinish: 1089
Ġlikes: 1089
gasps: 1089
Ġwindow: 1088
One: 1088
Ġkids: 1087
ĠAunt: 1087
Ġprop: 1086
Maybe: 1086
ĠAdam: 1085
Ġcon: 1084
ID: 1084
ys: 1083
Ġfigure: 1083
Ġrep: 1081
AS: 1081
Ġview: 1079
Ġdec: 1079
Ġbet: 1079
Ġarms: 1079
van: 1079
ĠAg: 1079
Ġneeds: 1077
ye: 1076
LA: 1075
Ġfrog: 1073
ific: 1072
ĠAugust: 1072
wo: 1071
ida: 1070
key: 1068
Ġanyway: 1068
hy: 1067
night: 1066
Ġadv: 1066
ĠPol: 1066
ĠLondon: 1066
Hello: 1066
Ġforget: 1065
LL: 1065
Ġorgan: 1065
Ġreleased: 1064
ew: 1063
fully: 1063
Ġtype: 1062
Ġcertain: 1062
"): 1062
Ġoper: 1059
Ġwaiting: 1058
ave: 1058
gan: 1057
Ġwor: 1057
ĠPar: 1057
box: 1056
Ġboard: 1056
ĠPl: 1056
Ġworry: 1055
ĠComm: 1054
Ġabove: 1054
Ġposition: 1054
Ġcreat: 1054
Ġwhatever: 1053
Ġcharge: 1053
ĠEve: 1052
Ġmoved: 1052
ĠFl: 1051
ized: 1051
Ġnoises: 1050
Ġmiles: 1050
See: 1050
Ġbee: 1049
Ġswe: 1049
ering: 1049
..": 1049
Ġhowever: 1048
ĠNow: 1048
ull: 1047
ĠMom: 1046
Ġstanding: 1046
Ġdance: 1046
ES: 1046
tin: 1045
Ġstep: 1044
uce: 1044
ĠIndian: 1044
ĠCity: 1044
ĠGe: 1043
Ġvillage: 1043
Ġship: 1041
TH: 1040
Ġbra: 1039
Ġtonight: 1038
Ġbroke: 1038
Ġputs: 1037
Ġequ: 1037
Ġsuff: 1035
babbles: 1034
mit: 1034
Ġind: 1033
lor: 1033
Ġchanged: 1032
ole: 1032
ches: 1031
Ġgun: 1031
Ġenjoy: 1031
Ġ.": 1031
Ġburn: 1030
ky: 1030
Ġtelling: 1029
Ġfarm: 1027
Ġtruck: 1027
Ġwhom: 1026
ray: 1026
Ġgold: 1025
Ġfollow: 1025
Ġshut: 1024
sings: 1024
Ġsafe: 1022
Ġquick: 1021
Ġdoubt: 1021
Ġlow: 1020
Ġtowards: 1020
ect: 1020
Ġshoot: 1019
itch: 1019
if: 1018
ĠIN: 1018
ater: 1017
Ġcaught: 1016
An: 1016
Ġ"=: 1015
Ġgen: 1015
IC: 1014
Ġmeeting: 1014
ĠUn: 1014
Ġmeant: 1013
ĠMarch: 1013
gl: 1011
ear: 1010
Ġeffect: 1010
ited: 1010
Ġbye: 1009
Any: 1009
Ġafternoon: 1008
Ġwhose: 1008
."": 1008
Ġnearly: 1005
yl: 1005
Ġcontrol: 1004
Ġlaw: 1004
Ġcake: 1003
Ġnews: 1003
Ġdra: 1002
Ġgod: 1001
Ġreturned: 1001
,--: 1001
ĠCol: 1000
Ġshoes: 1000
Ġengine: 1000
Ġye: 1000
ĠSc: 1000
Ġcry: 999
ĠBob: 999
ĠFrench: 999
Ġph: 997
een: 996
Ġwritten: 996
ince: 996
ĠSir: 996
Ġevening: 994
ĠJune: 994
Ġcos: 994
Ġdepartment: 991
]!": 990
ister: 989
Ġreach: 989
ko: 989
Ġformer: 988
hip: 988
ral: 987
ĠUniversity: 986
Ġtest: 985
work: 985
AD: 985
ĠAd: 984
Ġvocalises: 984
Ġthirty: 982
Ġquiet: 981
Ġhuman: 981
ically: 981
Ġsnow: 980
Ġsick: 980
ined: 980
Ġkitchen: 979
used: 979
Ġz: 979
Ġprogram: 979
ĠChe: 979
Ġcook: 978
that: 978
ult: 977
kin: 976
Ġsingle: 976
Ġsight: 976
Ġpause: 975
Ġquickly: 974
uct: 974
room: 974
Ġlanguage: 974
Ġhole: 972
Ġgrow: 972
ero: 972
Ġsad: 972
ima: 971
Ġad: 971
Ġbeat: 971
Ġmad: 971
ĠDecember: 971
Ġjack: 970
bre: 970
Ġhusband: 970
Ġobject: 968
Ġsave: 968
AL: 968
Ġpopulation: 968
'.": 967
Ġturns: 967
lin: 966
ĠBy: 966
Ġeh: 964
Ġfellow: 964
amp: 964
ura: 964
sha: 963
Ġsn: 963
Ġmis: 963
ĠBritish: 962
Ġbank: 961
Ġsecret: 961
Ġchildes: 960
CHILDES: 960
Ġ=": 960
Ġtoward: 960
Ġahead: 959
Ġlonger: 958
Ġexactly: 958
Ġdeep: 958
teen: 957
Ġcost: 955
Ġspot: 955
Ġought: 955
On: 954
Ġfollowing: 954
Ġbuild: 953
Ġfavorite: 953
Ġsy: 953
rit: 952
ĠNational: 952
Ġwarm: 951
eng: 951
ĠMy: 950
ÃŃ: 950
umb: 949
Ġant: 949
ually: 949
Tr: 949
Ġce: 948
con: 948
str: 948
ĠTra: 948
Ġreg: 948
Ġsoft: 947
ste: 947
Ġnorth: 947
ED: 946
Ġret: 945
Ġinterest: 945
Ġ"(: 945
ding: 944
ĠIr: 944
ĠThomas: 944
Ġnote: 942
Ġexcept: 942
Ġisland: 942
val: 941
Ġcommon: 941
Ġreplied: 940
Ġinstead: 939
tain: 938
Ġmembers: 938
ret: 937
Ġexample: 937
uk: 934
Ġpublic: 934
ala: 932
Ġlunch: 931
hes: 931
Ġanyone: 931
Ġjoin: 931
Ġsuper: 931
Ġblood: 931
Ġbutter: 930
fl: 930
Ġstore: 929
Ġmaster: 929
ĠMin: 929
ened: 928
oh: 927
Ġmark: 927
ior: 927
Ġhappens: 926
ude: 926
Ġwild: 926
Ġspend: 926
ĠSw: 926
Ġhaha: 925
ration: 925
Ġclimb: 924
ase: 924
Ġdep: 924
Ġwrote: 923
Ġyesterday: 923
Ġdisp: 923
Ġsouth: 923
Ġworth: 923
Ġsense: 923
Ġexpect: 923
Ġju: 922
Or: 922
ria: 921
Ġsol: 921
Ġjuice: 920
Ġmiddle: 920
Ġthr: 920
ĠFrank: 919
uff: 918
Ġfle: 918
body: 918
Ġcoffee: 917
Ġstuck: 915
Ġatt: 915
Ġservice: 915
cul: 914
Ġexpl: 913
Ġlocal: 912
Ġprotect: 912
Ġsmile: 911
COL: 910
Ġpieces: 910
Ġdecided: 910
AM: 910
ĠSer: 910
Ġinterested: 909
ility: 909
ple: 908
Ġsilence: 907
Ġserious: 907
ĠNat: 906
burg: 905
isa: 905
ek: 905
Ġcarry: 904
Ġcamera: 904
ĠMu: 904
gy: 904
ili: 903
Ġ?": 903
iver: 902
ĠEngland: 902
Ġgiving: 901
OK: 900
counter: 899
Ġshare: 898
Ġbuilt: 898
Ġplaces: 898
ĠWh: 898
ELS: 898
ona: 897
Ġchar: 897
Ġcol: 897
ilt: 896
ization: 896
Ġheavy: 895
Ġgeneral: 894
Ġgames: 894
Ġlaugh: 893
ize: 893
Ġsupposed: 893
ries: 892
Ġhell: 892
kes: 891
Ġusing: 891
Ġhor: 891
igh: 891
ĠBl: 891
Ġdoll: 890
ĠPeter: 890
At: 890
Ġtreat: 889
Ġplane: 888
Ġteacher: 888
Ġwand: 888
Ġterm: 888
Ġwall: 886
Ġfollowed: 886
Ġshop: 885
Ġinf: 885
eal: 885
ĠCaptain: 885
Ġem: 885
Ġgarden: 885
Ġcamp: 885
Ġmatch: 885
Ġhate: 884
Ġsca: 884
ĠWith: 884
Sorry: 883
Ġkick: 882
ĠCor: 882
ĠJoseph: 882
Ġtrust: 882
Ġworks: 881
ĠGeorge: 881
well: 881
Some: 881
ĠNor: 880
Ġconsider: 880
Ġsomewhere: 879
Ġlevel: 879
inc: 877
Ġden: 877
Ġthird: 876
Ġreached: 876
Thanks: 876
Ġopened: 875
Ġbull: 875
ram: 875
ift: 875
ĠCHAPTER: 875
Ġlegs: 874
Ġpardon: 874
Ġpolitician: 874
Ġsilly: 873
Ġsna: 873
ĠMum: 872
oss: 872
ĠMus: 872
ished: 871
ipe: 870
NA: 869
Ġcertainly: 869
Ġstopped: 868
Ġanimal: 867
Ġbreakfast: 867
Ġobs: 866
Ġmed: 866
Ġcommand: 866
Ġclub: 866
ĠBE: 866
hin: 865
Ġmajor: 865
Ġstra: 863
ĠEast: 863
Ġbelong: 862
Ġdream: 862
ĠFlorence: 862
ney: 861
Ġstrange: 861
Ġpack: 860
ified: 860
Ġindeed: 859
Ġpain: 859
for: 859
Ġled: 859
Uh: 859
Mar: 858
_,: 858
Ġadm: 857
Ġorange: 856
Ġpress: 856
rie: 856
ae: 856
Un: 856
Ġletters: 855
gg: 855
nic: 855
ĠMic: 855
Ġob: 854
Ġkey: 853
gar: 853
Ġfair: 853
Gr: 853
Ġhospital: 852
eak: 852
ren: 852
bit: 852
IR: 852
like: 851
aa: 851
Ġcrayon: 850
Ġbought: 850
Ġmonth: 850
Ġremain: 847
ĠBill: 846
Ġpresident: 846
ĠGar: 846
Ġneck: 845
Ġleaving: 845
Ġcareer: 845
Ġdrop: 844
Ġlead: 844
Ġchicken: 844
com: 843
Ġeast: 843
ada: 843
Ġlim: 843
Ġkn: 842
Ġdem: 842
Ġfore: 842
Ġaccount: 842
Ġreceived: 842
zz: 841
ĠCh: 841
inal: 841
Ġwatches: 840
sm: 840
ĠOf: 840
ĠRichard: 839
Ġagree: 839
Ġspoke: 839
Ġholds: 838
ĠJim: 838
Ġweeks: 837
Ġcorner: 837
Ġge: 836
ball: 835
ĠEr: 834
Really: 834
Ġprin: 833
Ġwood: 832
Ġlose: 832
Ġeveryone: 832
Ġperiod: 832
Ġalthough: 831
THE: 831
Footnote: 831
Ġbottle: 830
Ġpark: 830
UT: 830
lf: 829
Ġfinger: 828
urs: 828
ues: 827
IE: 827
Ġloud: 825
Ġtravel: 825
sed: 825
Ġfix: 824
ood: 824
har: 824
Ġcou: 822
Ġbottom: 821
igg: 821
Ġwide: 820
che: 820
Ġdry: 819
Ġdate: 819
UN: 819
ĠJwww: 819
Ġlift: 818
Ġhoney: 818
Ġvol: 818
Ġprison: 818
ool: 817
ator: 817
ĠWill: 817
Ġtor: 816
Ġapart: 816
ĠWilliam: 816
Ġcrying: 815
Ġrub: 815
Ġsummer: 815
Ġaccept: 815
Ġspace: 814
Ġapple: 813
sn: 813
Ġsch: 813
ST: 813
Ġleaves: 812
Ġhang: 811
Ġcap: 811
Ġsold: 811
Ġbang: 810
Ġcircle: 810
Ġdirection: 809
ico: 809
Ġpri: 809
Ġbrown: 808
Ġmurder: 808
Ġbro: 807
Ġpol: 807
ree: 807
irl: 807
arl: 807
ĠHow: 807
Ġcand: 806
cious: 806
Ġfifty: 805
ett: 804
JW: 804
With: 804
Ġmoving: 803
Ġrepresent: 803
Ġbright: 802
ship: 802
eme: 802
dle: 801
Ġgas: 801
ĠAND: 801
ĠPresident: 800
sing: 799
ran: 798
ants: 798
Ġbread: 798
Ġsuddenly: 798
Ġextra: 798
Ġang: 798
Wait: 798
ows: 797
house: 797
ĠThese: 797
ict: 796
Ġsuit: 796
Ġappeared: 796
Ġhungry: 795
eb: 795
ination: 795
Ġanybody: 794
Ġhistory: 794
Ġban: 793
Ġann: 793
Â: 793
Ġincluding: 792
ils: 792
Ġvideo: 792
ission: 792
RA: 792
Ġwatching: 791
Ġsituation: 791
Ġlab: 791
ched: 791
Ġshape: 791
Ġglass: 790
Ġwriting: 789
Ġcrazy: 789
Take: 789
icks: 788
Å: 788
Ġscar: 787
ĠKat: 787
Ġdev: 787
ĠMac: 786
Ġcarried: 786
Ġcru: 786
ĠCat: 785
UNK: 785
Ġknock: 784
orm: 784
Ġrem: 784
Ġcourt: 784
Ġbusy: 783
board: 783
Ġclever: 783
Ġhasn: 783
Ġpin: 782
Ġdesign: 781
ision: 781
Ġfurther: 780
ĠSea: 780
Ġallowed: 780
oll: 780
Ġtruth: 779
Ġcompet: 778
Ġbird: 777
ĠAmerica: 777
iot: 777
Ġoriginal: 776
Ġblock: 775
Ġchurch: 775
Ġbell: 774
ford: 774
Ġbre: 774
ĠINV: 773
ov: 772
Ġdistance: 772
ters: 771
Ġfilm: 771
ĠCent: 771
Tell: 770
ĠChristmas: 769
Ġanymore: 769
Ġlaughs: 769
Ġmus: 769
ident: 769
ĠIT: 769
Ġbased: 768
Ġalbum: 768
Ġgar: 767
ĠNot: 767
Ġtick: 767
ĠStan: 767
Ġsmell: 766
Ġhide: 766
Ġcapital: 766
Ġattention: 765
Ġfeat: 765
Ġport: 765
Ġ$: 764
ĠBRO: 764
Ġunc: 764
arm: 764
uction: 763
Ġalt: 763
Ġuhoh: 763
ĠAmy: 763
Ġcompl: 762
pect: 762
Ġsu: 762
Ġpocket: 761
ife: 760
ĠGerman: 760
old: 759
ĠDO: 759
ĠEx: 759
ĠEn: 759
Ġmistake: 758
Ġescape: 757
Ġself: 756
Ġcheese: 756
Ġhorses: 756
fr: 756
Ġspec: 756
Ġgall: 755
Ġbabies: 754
Ġtie: 754
ĠBur: 754
ĠPort: 754
Ġhealth: 753
Ä: 753
Ġyep: 752
Ġsail: 752
ock: 752
Ġel: 751
ĠDada: 751
gn: 751
Ġag: 751
ĠJames: 751
ming: 750
Ġcomb: 750
ĠJe: 750
Ġexclaimed: 750
Ġtrees: 749
Ġadded: 749
asure: 749
Ġaccident: 748
ens: 748
Ġpersonal: 748
ĠCalifornia: 748
ology: 748
Ġ]: 747
Ġthanks: 747
ired: 747
Ġbeginning: 746
port: 746
Ġitself: 746
ican: 746
Ġnames: 745
gen: 745
Ġlock: 744
Ġcre: 744
ule: 744
ience: 744
Ġholding: 743
Ġrace: 743
Ġmum: 743
Ġfuck: 743
Fr: 742
ised: 742
off: 741
Ġwet: 741
Ġhandle: 741
ĠRiver: 741
hen: 740
Ġtail: 740
IA: 740
ĠGreat: 739
Stop: 739
Ġshouldn: 738
Ġmon: 738
Ġsell: 737
Ġwalking: 737
ou: 737
Ġcro: 737
Ġpink: 736
ald: 735
ained: 735
Ġbur: 734
ĠAlexander: 734
illa: 733
ives: 733
Ġparents: 733
Ġchief: 732
Ġap: 732
ĠWin: 732
Ġinst: 732
ĠAustralia: 732
Ġplayer: 731
Ġfeed: 729
Ġdelight: 729
can: 728
ĠFr: 728
CE: 728
Ġliked: 728
ĠHouse: 728
Ġ".: 728
Ġ"âĢĵ: 728
Ġdig: 727
Ġnone: 727
Ġcheer: 727
ĠII: 727
Ġdropped: 726
ums: 726
Ġteeth: 726
Ġhall: 726
Ġregard: 726
Ġblocks: 725
Ġspoon: 725
rat: 725
ĠSam: 725
Every: 725
Ġcollect: 724
ĠChrist: 724
Ġearth: 724
Ġcapt: 724
Ġplate: 723
Ġsubject: 723
ĠMon: 723
Ġtrack: 723
Ġrid: 723
ĠUncle: 723
itor: 723
Ġcontinued: 723
hold: 722
wer: 722
Ġcommune: 722
Ġshowed: 721
med: 721
Ġrece: 721
Ġcream: 720
Ġattempt: 720
Ġsex: 720
Ġmanner: 720
Ġbeside: 719
Ġenc: 719
AND: 719
Ġgate: 718
ĠTur: 718
Ġham: 717
Ġquestions: 717
Ġu: 717
Ġrespect: 717
Z: 717
Ġtour: 717
Ġvo: 716
Ġwonderful: 716
Ġstud: 715
Ġshit: 715
ĠDar: 714
ĠGrand: 714
Ġspirit: 714
uss: 713
jo: 712
Ġpuzzle: 712
alk: 712
Ġnatural: 712
Ġbridge: 712
Ġrat: 711
ĠHall: 711
Ġ(": 711
don: 710
Ġdifference: 710
orn: 710
head: 710
Ġloved: 710
Ġfucking: 710
Ġspl: 709
other: 709
ont: 709
Ġshr: 709
Ġlion: 708
Ġactor: 708
ĠMad: 708
Ġbeg: 707
por: 707
imate: 707
ĠDon: 706
ĠRos: 706
ĠBat: 705
Ġsettle: 705
vin: 704
Ġdro: 704
rop: 703
ĠMark: 703
Ġweren: 703
Ġslowly: 702
Ġprom: 702
ĠCan: 702
Ġrow: 701
uit: 700
ising: 700
ote: 700
ument: 700
une: 700
Ġhast: 699
vel: 699
Ġpaint: 699
ĠMary: 699
ola: 699
Ġabs: 699
Ġallow: 698
ressed: 697
VE: 697
nder: 697
Ġmagnet: 697
Ġguard: 697
Ġearn: 697
Ġteddy: 696
HE: 696
ery: 695
Ġflat: 695
Ġsquare: 695
ĠMer: 695
uel: 695
hood: 694
ena: 694
Like: 694
Ġoffer: 693
Ġmat: 692
Ġfresh: 692
Ġpun: 692
ĠGl: 692
ĠCup: 692
ĠArt: 692
Ġdrawing: 691
Ġtowel: 691
cries: 691
ost: 690
Ġsharp: 690
gue: 690
ĠSan: 690
Ġnap: 689
Ġvote: 689
Ġlaughing: 688
osed: 688
Ġinn: 688
Ġhum: 687
Ġreading: 687
Ġproblems: 687
ked: 686
Ġinteresting: 686
Ġrole: 686
Cl: 686
ota: 686
Ġpromise: 686
ĠSal: 686
³: 686
Ġexcuse: 685
Ġseeing: 685
Ġpil: 685
Ġfingers: 685
Ġflowers: 685
SE: 685
gress: 685
Ġprovince: 684
II: 684
Ġuncle: 683
....: 683
ila: 682
%: 682
Ġbasket: 681
Ġext: 681
Ġdollars: 680
iment: 680
wood: 680
Ġenter: 680
ying: 679
Ġfuture: 678
ugg: 678
Ġdisapp: 678
Ġwave: 678
Ġevent: 678
ax: 678
ĠChristian: 678
Ġforgot: 677
Ġsle: 677
ĠFrom: 677
WE: 677
Ġcoat: 676
Ġpres: 676
eed: 676
Ġofficial: 676
iel: 676
Give: 676
Ġactiv: 675
Ġsimilar: 674
Ġnor: 674
Ġcars: 674
Ġsurprise: 674
Ġforce: 674
Ġdue: 674
Ġpaid: 674
bed: 673
ats: 673
Ġaction: 673
Ġmer: 673
Ġlength: 673
ĠST: 673
pen: 672
Ġstarts: 672
Ġeggs: 672
.--: 672
bles: 671
af: 671
AY: 671
Ġ...: 671
Ġsinging: 670
Ġbutton: 670
cel: 670
ider: 670
form: 670
Ġconst: 670
ady: 670
Ġparticular: 670
Ġleader: 670
ien: 670
Ġexplain: 669
Ġmachine: 669
Ġinformation: 669
Ġwha: 668
Ġke: 668
Ġexperience: 668
istic: 668
Listen: 668
ural: 667
clock: 667
urb: 667
Ġrule: 667
Ġcouncil: 667
ining: 666
Ġtall: 666
mar: 666
ij: 666
Ġswing: 665
Ġmovies: 665
Ġsum: 665
Ġperm: 665
UR: 665
Ġgives: 664
ston: 664
Ġcom: 664
war: 664
ato: 663
Ġneeded: 663
Ġhost: 663
Ġdanger: 662
Ġtrip: 661
Ġwalked: 661
Ġdestroy: 661
Ġolder: 661
Ġpet: 660
Ġnobody: 660
Ġaff: 660
Ġbattle: 660
Ġshows: 659
Ġdri: 659
Ġlying: 659
ĠIsland: 659
Ġgoin: 658
Ġfly: 658
ction: 658
ĠJer: 657
bye: 657
light: 657
oth: 657
Will: 657
Ġstudy: 656
eer: 656
Ġstage: 656
under: 656
laugh: 656
Ġwake: 655
Ġperfect: 655
ĠDad: 654
anc: 654
Ġcop: 654
AC: 654
Ġproduc: 654
mie: 653
Ġplays: 653
Ġcontr: 653
Ġdef: 653
Ġsky: 653
idge: 653
Ġstat: 653
Ġcoach: 653
GE: 653
Ġchan: 652
Ġpictures: 651
ctor: 651
Ġcard: 650
rain: 650
Ġproduct: 650
Ġrich: 650
Ġcreated: 650
Sure: 650
app: 649
Qu: 649
Ġespecially: 649
ĠFred: 649
ĠSch: 649
ĠSy: 649
Ġelephant: 648
dom: 648
Ġdet: 648
Ġproject: 648
irt: 647
Ġquarter: 647
Sp: 647
Ġmass: 647
Ġris: 646
Ġoccasion: 645
chan: 645
Ġpicked: 645
ief: 645
Ġbrush: 644
Ġpurple: 644
Ġmid: 644
Ġviol: 644
Ġtwelve: 643
Ġpopular: 643
ĠIndia: 643
whis: 642
els: 642
Ġaddress: 642
ĠLat: 642
ĠFAT: 641
Ġspell: 641
Ġnon: 641
net: 641
Ġappl: 641
EE: 641
Ġbow: 640
Ġteach: 640
udd: 640
Ġhy: 640
ivers: 640
view: 640
ĠState: 640
Ġgrass: 639
Ġtaste: 638
Ġbigger: 638
Ġexist: 638
ĠPeggy: 638
ĠIts: 638
Ġelection: 638
Ġ(): 638
oint: 637
Ġver: 636
Ġears: 636
mas: 636
Ġeffort: 636
Ġrealize: 636
Ġrequire: 636
ĠSchool: 635
Ġyo: 635
Ġexc: 635
ĠGO: 635
Ġspring: 634
ĠCreek: 634
Con: 634
Dr: 633
Ġterrible: 632
ĠAnne: 632
ĠHowever: 632
Ġcrack: 631
Ġpicks: 631
ĠMal: 631
Ġtend: 631
ĠHelen: 631
ĠON: 631
fer: 630
Ġscene: 630
ius: 630
Ġspecies: 630
ĠUS: 630
ĠRob: 629
Ġsize: 629
Ġcoll: 629
ĠSunday: 628
Ġamount: 627
istan: 627
Ġdirty: 626
Ġmanage: 626
Ġtalked: 626
ival: 626
Ġaccom: 626
Ġsupp: 625
ony: 625
itt: 624
ĠLeague: 624
Ġprove: 624
Ġcentury: 624
Ġworse: 623
Ġdiscuss: 623
Ġmix: 623
Ġrate: 623
Ġtone: 623
Ġbackground: 623
Ġfort: 622
Ġhill: 622
cess: 622
ĠLord: 622
ĠRE: 622
aff: 621
Ġparts: 621
sy: 620
Ġturning: 620
Ġte: 620
not: 619
Ġtower: 619
Ġjo: 619
Ġcrit: 619
olf: 618
Ġstars: 618
ique: 618
Ġbound: 618
ĠJapanese: 618
Does: 618
.]: 617
Ġinterrupt: 617
Ġur: 617
Ġcrowd: 616
ĠJust: 616
ube: 615
Ġspent: 615
thing: 615
Ġav: 615
IL: 615
ĠGervaise: 615
Ġ"#: 615
Ġrabbit: 614
Ġwelcome: 614
Ġtrick: 614
Ġpounds: 614
Ġexpress: 614
itted: 614
Ġpleasure: 614
ĠPre: 614
ĠTim: 613
Ġarmy: 613
Ġsuggest: 613
Ġdin: 612
lect: 612
Ġclosed: 612
Ġresult: 612
ĠMor: 612
Which: 612
inct: 611
Ġdirector: 611
Ġcurrent: 610
Ġasking: 609
ĠCarl: 609
Ġcaused: 609
wr: 608
Ġcomputer: 608
ĠInd: 608
Nothing: 608
Ġinstr: 607
Ġcomplete: 607
cast: 607
Ġappear: 607
Ġbelow: 607
Ġdirected: 607
Ġsur: 607
ĠSl: 606
ury: 606
`: 606
come: 605
Ġsnake: 605
Ġemb: 605
Man: 605
bab: 604
atic: 604
Ġbill: 604
olog: 604
awa: 604
Ġalive: 604
Ne: 604
Would: 604
Ġprim: 603
Ġrose: 603
ville: 603
Ġbab: 602
ET: 602
Ġfol: 602
ĠCharlie: 602
rot: 601
Ġskin: 601
Ġfinally: 601
Ġnotice: 601
Ġsuccess: 601
Ġmunicipality: 601
ĠHistory: 601
ĠRepublic: 601
Ġshake: 600
Ġcheek: 600
ĠME: 600
Ġhiding: 599
Ġele: 599
ains: 599
Ex: 599
ĠRosamund: 599
Ġawful: 598
urt: 598
point: 597
Ġ,: 597
Ġval: 596
Ġdoc: 596
._: 596
Ġupstairs: 595
oph: 595
*: 595
Ġconnect: 594
ALL: 594
ject: 593
Ġasleep: 593
Ġraised: 593
ĠAct: 593
Ġhar: 592
Ġhelped: 592
ately: 591
Ġrob: 591
ges: 591
Ġdare: 591
Ġcollege: 591
Ġbeyond: 591
ĠBel: 591
ird: 590
Ġfinal: 590
ians: 590
Ġpolicy: 590
Ġhurry: 589
iness: 589
Ġvar: 589
pes: 589
Ġjoined: 589
Ġsand: 588
Ġbite: 588
Ġgro: 588
Ġfool: 588
Ġplain: 588
Ġsearch: 588
Ġhun: 587
Ġbrief: 587
Ġshad: 587
nded: 587
ild: 586
Ġsurv: 586
Ġcondition: 586
«: 586
ĠRobert: 586
ĠJones: 585
ĠAlbert: 585
uced: 584
ĠWE: 584
ĠQu: 583
Ġpie: 583
Ġbomb: 583
Ġauthor: 583
gie: 582
zy: 582
Ġnaughty: 582
ĠHarry: 582
Ġsimple: 582
pan: 581
pper: 581
ably: 581
Ġcovered: 581
sey: 581
ĠCH: 581
MU: 581
Ġtem: 579
here: 579
ĠGood: 579
ional: 579
Ġtechn: 579
Ġcommunity: 579
Ġincrease: 578
Ġutter: 577
Ġphot: 577
Ġpencil: 576
Ġwhoops: 576
Ġheat: 575
ield: 575
Ġaffect: 575
ĠSen: 575
Ġfamous: 574
ror: 574
mn: 574
Ġthreat: 574
Ġcal: 573
laughing: 573
Ġintrod: 573
Ġpur: 573
Ġprocess: 573
Ġtotal: 573
Ġinclude: 573
Was: 573
Ġrough: 572
Ġarrange: 572
ĠTed: 572
Ġlikely: 572
Ġgener: 572
ĠTHAT: 572
Ġshirt: 571
Ġnumbers: 571
Ġnineteen: 571
oor: 571
Ġgat: 571
Ġchap: 571
Ġarrest: 571
ĠLouis: 571
worth: 571
ament: 571
now: 570
bon: 570
Ġfail: 570
Ġgrew: 570
Le: 570
Ġbroad: 570
Ġwest: 569
Ġscared: 569
Ġmessage: 569
Ġvan: 568
cks: 568
iet: 568
Ġpurs: 568
ĠCal: 568
Ġspeed: 568
isy: 567
tered: 567
ĠTexas: 567
Ġpath: 567
ipped: 566
Ġmeat: 566
vocal: 566
Ġstorm: 566
Ġstrength: 566
Excuse: 566
Ġdrew: 565
Ġbranch: 565
Ġmarket: 565
ĠPh: 565
Ġdriving: 564
Ġear: 564
Ġthinks: 564
ison: 564
Ġimagine: 564
ĠMarie: 564
Ġsheep: 563
ads: 563
Ġpeace: 563
atch: 563
brother: 563
Ġissue: 563
Ġest: 563
Ġcrash: 562
Ġnet: 562
Ġcensus: 562
Ġtun: 561
ille: 561
isc: 561
Ġsandwich: 560
Ġhero: 560
OW: 560
Ġspeaking: 559
Ġcond: 559
Ġsurr: 559
ĠMont: 559
Ġneedta: 558
Ġjoy: 558
Ġbirds: 558
ĠPark: 558
ĠDav: 558
Ġcompanion: 558
Ġlines: 557
Ġforth: 557
ĠIndians: 557
Ġseparate: 557
ĠWil: 557
tern: 556
iving: 556
ĠSaturday: 556
Ġsteps: 556
amb: 556
Ġregular: 556
ĠRol: 556
JO: 556
Ġwhis: 555
Ġpractice: 555
hm: 555
field: 555
Ġtribe: 555
Ġserv: 554
Ġairport: 554
Ġshout: 554
Ġbuck: 554
ĠComp: 554
Ġvarious: 554
alth: 554
Ġcaptain: 553
Ġmissing: 553
LD: 553
Ġsleeping: 552
Ġcirc: 552
ene: 552
Ġbother: 552
ature: 552
Ġconversation: 552
ĠIrene: 552
Ġweap: 552
Mhm: 552
!': 552
Ġclap: 551
Ġprot: 551
Ġsatisf: 551
Ġprice: 551
Ġdecision: 551
ĠFather: 550
hel: 550
uke: 550
Ġcalling: 549
Ġglance: 549
Ġnut: 548
Ġtries: 548
Ġways: 548
Ġoops: 548
Ġarri: 548
ĠRight: 548
WH: 548
Ġcomment: 547
cue: 547
|: 547
ĠWH: 547
Ġtitle: 546
Ġsimply: 546
uring: 546
Ġthrew: 546
Ġgrave: 546
Ġstream: 546
ify: 546
stit: 546
Ġbrave: 546
Pro: 546
FRI: 546
ĠÃ: 546
cri: 545
Ġanywhere: 545
EC: 545
ĠRoman: 545
Ġterr: 544
ĠLady: 544
Ġattend: 544
Ġ&: 544
ĠHigh: 544
Ġbeha: 543
ux: 543
ait: 543
Ġev: 543
Ġident: 543
cip: 543
Ġhappening: 542
Ġarrived: 542
ories: 542
ots: 542
ĠSteve: 542
Ġthir: 541
att: 541
erve: 541
Ġlap: 540
mber: 540
Ġcabin: 540
Ġpurpose: 540
non: 540
bur: 540
Ġterms: 540
Ġscore: 540
Ġentr: 540
Bl: 540
ĠMos: 540
fore: 539
how: 539
Ġstories: 539
aint: 539
US: 539
Ġofficer: 539
VER: 539
Very: 539
ular: 538
Ġstupid: 538
ĠBer: 538
ĠLara: 538
Even: 538
Ġgoodness: 537
Ġsmoke: 537
Ġradio: 537
Ġinj: 537
Ġhop: 536
Ġtight: 536
Ġneg: 536
Ġlower: 536
what: 535
imit: 535
Ġformed: 535
Ġcust: 535
Ġserved: 535
Ġwheel: 534
Ġended: 534
ox: 534
May: 534
place: 533
Ġfac: 533
wards: 533
ently: 533
ared: 533
Ġmostly: 533
ounded: 533
Ġlargest: 533
irm: 532
kiss: 532
Ġangry: 532
ĠMatt: 532
ĠParty: 532
ĠCouncil: 532
Ġprevious: 531
ĠDuring: 531
ĠRed: 531
hing: 531
Ġcell: 531
ĠBra: 531
Ġtid: 531
otion: 531
berry: 530
Ġspread: 530
Ġsoul: 530
Ġsinger: 530
His: 530
ander: 530
inary: 529
add: 529
Ġplaced: 529
Ġluck: 529
Ġstarting: 529
Ġpour: 528
ĠRam: 528
Ġmamma: 528
Ġsurprised: 528
Ġfifteen: 528
Ġdressed: 528
alt: 528
Ġforty: 528
ĠPr: 528
Ġentered: 528
Ġaward: 528
Ġwaste: 527
Ġsupper: 527
Ġfile: 527
TER: 527
ĠMany: 527
----: 527
Ġtax: 526
aft: 526
Ġonto: 526
Ġmissed: 526
Ġlaid: 526
ark: 526
Ġconsidered: 526
IF: 526
ĠStreet: 525
ĠTH: 525
Ġdinosaur: 524
Ġhardly: 524
OME: 524
Ġpray: 524
AK: 524
ĠBradford: 524
Ġballoon: 523
Ġcast: 523
Ar: 523
ĠIS: 523
Ġshoe: 522
ĠMil: 522
ann: 522
KAT: 522
ĠInternational: 522
Ġtrade: 521
Ġmotion: 521
Ġninety: 521
Ġeleven: 521
Ġnurse: 521
Ġrese: 521
Ġclaim: 520
vers: 520
Ġtiger: 520
Ġmoon: 520
Ġdangerous: 520
ĠFOR: 520
Ġemploy: 520
die: 519
Ġholiday: 519
vent: 518
Ġthroat: 518
Ġfur: 518
iter: 517
Ġloves: 517
Ġsevent: 517
uth: 517
ĠCom: 517
Ġgoal: 516
Ġwinter: 516
Got: 516
Ġwagon: 515
Ġprofessional: 515
aud: 515
Ġexam: 515
Ġpolitical: 515
'?": 514
bell: 514
ano: 514
Ġsocial: 514
Ġinvolved: 514
ĠFre: 514
ĠQueen: 514
get: 513
Ġdoggie: 513
Ġclown: 513
Ġstro: 513
hed: 513
Ġbunny: 512
Ġbin: 512
Ġunless: 512
unch: 512
Ġhonor: 512
Ġmodel: 512
Ġyouth: 512
Ġdriver: 511
Ġedge: 511
ption: 511
ĠFin: 511
Ġiron: 510
Ġdescri: 510
cer: 510
Ġrisk: 510
Ġcult: 510
unk: 510
Ġneighbor: 509
Ġble: 509
ids: 509
Ġearlier: 509
Ġed: 509
Ġlaughed: 509
Ġfighting: 508
Ġladies: 508
Ġtemper: 508
Ġsurface: 508
rap: 508
Ġeducation: 508
Ġbug: 507
Ġbal: 507
Ġcent: 507
Ġsite: 507
Ġanxious: 507
Ġweak: 506
iy: 506
Ġcalm: 506
Ġmerc: 506
Ġaged: 506
Chi: 505
oon: 504
Ġimm: 504
oot: 503
Ġtwice: 503
Ġprepar: 503
Ġpleased: 503
Ġdeb: 503
iance: 503
ĠGeneral: 503
Ġmovement: 502
Ġdevelopment: 502
win: 502
Ġfro: 502
iction: 502
ĠAMY: 502
Ġknights: 502
Ġcompletely: 501
Ġuhuh: 501
Ġdere: 501
pped: 501
ĠLuc: 501
ĠFort: 501
TE: 501
Could: 501
CK: 501
Ġnature: 500
Ġmummy: 500
IM: 500
right: 499
SC: 499
ION: 499
OT: 499
Ġsusp: 498
oid: 498
Ġforg: 498
Ġtherefore: 498
Ġempty: 497
Ġbowl: 497
Ġmot: 497
cept: 497
Ġcloud: 497
Ġreact: 497
Ġpatient: 497
Ġareas: 497
Ġannounced: 497
Ġ): 497
Ġfallen: 496
ĠTw: 496
Ġbless: 496
Ġlips: 495
Ġpir: 495
Ġfalling: 495
Ġbrain: 495
Ġhigher: 495
Ġfill: 495
Ġphys: 495
Ġpartner: 495
Ġweather: 494
father: 494
xt: 494
rate: 494
Ġchem: 494
Ġtom: 493
bing: 493
Ġhouses: 493
Ġug: 493
ĠGermany: 493
ĠBO: 493
Ġpill: 492
ĠLittle: 492
ĠChris: 492
aly: 492
Ġdrug: 492
ĠChan: 492
Ġ"...: 492
Ġmagic: 491
Ġeasily: 491
ĠCarol: 491
Ġgradu: 491
ĠJean: 491
Ġactress: 491
ould: 491
Ġclock: 490
Ġposs: 490
Ġversion: 490
Ġroof: 490
Ġartist: 490
Ġstrugg: 490
ode: 490
Ġund: 490
Ġpers: 490
CAR: 490
ĠDistrict: 490
Ġwipe: 489
Ġmoves: 489
hat: 489
Ġduty: 489
Ġsugar: 488
Ġmonster: 488
ided: 488
ĠAnt: 488
Ġscream: 487
isse: 487
ĠHy: 487
apa: 486
Ġdesk: 486
ĠPal: 486
Ġcrew: 486
Ġdeclared: 486
_.: 486
Ġ"!": 486
Ġfilled: 485
any: 485
Ġemp: 485
Ġharm: 485
.,: 485
Com: 485
Ġnomin: 485
Ġlucky: 484
Ġhol: 484
ĠJess: 484
Ġhonest: 484
ĠOk: 484
vis: 484
Our: 484
ĠAward: 484
ĠMother: 483
Ġcolors: 483
q: 483
Ġarg: 483
ĠHenry: 483
ĠSid: 483
Ġassist: 483
most: 482
Ġhotel: 482
aut: 482
Cos: 482
Ġmeal: 481
Ġate: 481
Ġlearned: 481
outs: 481
ĠVan: 481
ause: 481
ĠMinister: 481
ĠUnion: 481
IV: 481
ppy: 480
Ġexcited: 480
Ġplant: 480
Ġthick: 480
Ġfemale: 480
ough: 480
Ġsac: 480
Ġnecessary: 479
Ġstands: 479
Ġtrunk: 479
Ġchoice: 479
Ġeconom: 479
Ġpra: 478
cher: 478
Ġslow: 477
Ġtip: 477
Ġcomfort: 477
erv: 477
Ġfellows: 477
Ġtap: 476
Ġsentence: 476
Ġflying: 476
ointed: 476
Ġet: 476
Ġmentioned: 476
Ġprivate: 476
Gu: 476
Illustration: 476
ograph: 475
noise: 475
Ġrange: 475
rated: 475
ĠJul: 475
Two: 475
though: 475
OL: 475
rist: 474
ower: 474
fect: 474
Ġcorrect: 473
play: 473
Ġpulled: 473
Ġwalks: 473
Ġsmart: 473
ĠTheir: 473
Ġcrime: 473
Ġpublished: 473
Ġtiny: 472
isted: 472
hod: 472
Ġguns: 471
Ġlem: 471
ĠBert: 471
Ġepisode: 470
Ġtickle: 470
ĠScott: 470
Ġmilitary: 470
ishment: 470
Ġrelig: 470
ĠLaw: 470
-": 470
ĠChampionship: 470
rid: 469
ached: 469
Ġeager: 469
ĠSar: 469
LY: 469
Ste: 469
Ġkitty: 468
Ġhon: 468
umber: 468
Ġheads: 468
Ġproud: 468
acy: 468
ĠLem: 468
Ġappearance: 468
own: 467
Ġshoulder: 467
ĠHam: 467
Ġexpected: 467
ĠMartin: 467
Ġenemy: 467
Ġstructure: 466
Ġswimming: 465
Ġchoo: 465
ĠMel: 465
Ġstone: 465
Ġtongue: 464
Ġdancing: 464
ĠJesus: 464
Ġdogs: 464
Ġwhoa: 464
Ġbegin: 464
Ġresearch: 464
Ġty: 464
Ġjudge: 464
Ġturtle: 463
itation: 463
Ġgrab: 463
ĠPlay: 463
Ġpercent: 463
Ġfruit: 462
Ġwatched: 462
Am: 462
Ġimmediately: 462
Ġfaith: 462
Ġimpro: 461
Ġwan: 461
Ġdouble: 461
Ġvalue: 461
Ġmil: 461
ĠTV: 460
ĠSte: 460
Ġmeaning: 460
Ġshar: 460
Che: 460
ense: 460
ously: 460
Ġgrandma: 460
Ġhadn: 460
Ġsens: 460
Ġrail: 460
Ġcentre: 460
Ġkeeping: 459
Ġfault: 459
Ġfre: 459
Ġadvent: 459
ĠChina: 459
wing: 458
Ġchocolate: 458
Ġlid: 458
Ġhel: 458
ĠDorothy: 458
rian: 458
ĠTwo: 458
ĠSaint: 458
idence: 458
OP: 458
âĢ: 458
Ġshore: 457
ciety: 457
Ġfirm: 457
rant: 457
Ġlawyer: 457
ĠHE: 457
Ġevidence: 456
Ġknee: 456
Ġclot: 456
Ġegg: 456
par: 456
aps: 456
Ġlights: 456
Ġwoods: 456
Ġprint: 456
ĠMost: 456
Ġusual: 456
Ġacqu: 456
Ġinqu: 456
Ġrights: 456
Ġinstant: 456
ĠDonald: 455
Ġprize: 455
ĠWhy: 455
ĠCharles: 455
ather: 454
Ġstatement: 454
ĠBoy: 454
Wh: 454
Ġnoticed: 453
ĠEuropean: 453
Ġshel: 452
hand: 452
Ġbedroom: 452
ages: 452
Ġsaved: 452
ively: 452
Ġdegree: 452
Ġfavor: 452
RUS: 452
Ġcoast: 452
Ġtoast: 451
Ġgift: 451
MB: 451
Ġaud: 450
Ġdefinitely: 450
rim: 450
Ġpromised: 450
Ġtask: 450
ĠKitty: 450
Ġoccup: 450
Ġgroups: 450
Ġbel: 449
Ġfashion: 449
Ġprefer: 449
ification: 449
Ġtowns: 449
Ġchoose: 448
God: 448
Ġslave: 448
Bye: 448
Ġgrown: 447
Ġindic: 447
Ġslide: 447
Ġpleasant: 447
ĠYes: 447
Ġfigures: 446
ises: 446
Ġnormal: 446
Ġblanket: 445
Ġspeech: 445
Ġabsolutely: 445
ĠBobby: 445
Ġindust: 445
ĠLet: 445
Ġnative: 445
Ġmotor: 444
Ġmater: 444
AP: 444
Ġloss: 444
ems: 443
Ġdrama: 443
Ġincre: 443
Ġpool: 443
Ġourselves: 443
ees: 443
Ġagreed: 443
YOU: 443
Ġmud: 442
Ġstraw: 442
ression: 442
ĠMalcolm: 442
Ġdownstairs: 441
bie: 441
Ġpair: 441
Ġcontinues: 441
Ġmist: 441
Ġid: 441
Ġjungle: 441
Ġstates: 441
Ġwriter: 441
Ġwearing: 440
Ġcart: 440
Ġyum: 440
Ġcities: 440
gent: 440
Ġmor: 440
ĠBlack: 440
Ġproduced: 440
Ġhuge: 439
Ġstyle: 439
ĠLos: 439
Ġdepend: 439
ĠCass: 439
Ġstranger: 439
Ġstruck: 439
Sir: 439
icle: 438
iling: 438
ridge: 438
Ġfarmer: 438
Ġexper: 438
ata: 438
iber: 438
],: 438
Ġhistor: 438
ĠKore: 438
ĠAcademy: 438
Ġshower: 437
Ġplenty: 437
Ġenergy: 437
ĠBab: 437
aster: 437
uly: 437
Ġindividual: 437
UD: 437
Ġgentleman: 437
Ġrevol: 437
Ġremarked: 437
Celeste: 437
Ġlistening: 436
Ġcenter: 436
atives: 436
Ġwilling: 436
umn: 436
ĠTer: 436
ĠLO: 436
Ġcountries: 436
Ġzoo: 435
oop: 435
Ġcarefully: 435
Ġvis: 435
Ġplans: 435
ening: 435
oom: 435
they: 435
Ġdesire: 435
Ġtells: 434
Ġflight: 434
Aye: 434
ĠSarah: 433
itive: 433
Ġsongs: 433
Ġweight: 433
Ġcousin: 433
uf: 433
iled: 433
Ġnorthwest: 433
ĠGames: 433
ĠMid: 432
iding: 432
Ġsuccessful: 432
ĠRussian: 432
itude: 432
ĠMed: 432
Ġfavour: 432
Ġserve: 431
Ġtext: 431
Ġdest: 431
Ġattract: 431
Ġmanager: 431
Never: 431
Ġaf: 430
ĠTony: 430
ĠReg: 430
nds: 430
ways: 430
Ġdamage: 430
hal: 430
iring: 430
ĠEllie: 430
Ġprov: 430
.'": 430
Ġcards: 429
acher: 429
Ġsoldiers: 429
Ġballs: 428
Ġdesp: 428
Ġjourney: 428
berg: 428
ĠItalian: 428
erved: 428
Ġcere: 427
Ġsake: 427
boy: 427
aj: 427
Ġoil: 427
umble: 426
Ġgenerally: 426
Ġremained: 426
Ġsilent: 426
ĠPeople: 426
Ġdozen: 425
ĠAir: 425
After: 425
ĠProv: 425
Ġmodern: 424
Ġfund: 424
ado: 423
kn: 423
Ġopposite: 423
Ġpract: 423
SS: 423
Ġproper: 423
Ġresol: 423
ĠEurope: 423
Only: 423
uts: 422
coughs: 422
Ġmut: 422
ĠGreen: 422
ĠHere: 422
ĠRec: 422
Ġofficers: 422
Ġthou: 422
Ġop: 421
dam: 421
ios: 421
Ġblind: 421
',: 421
back: 421
ĠRes: 421
Ġcelebr: 421
Ġdread: 421
Ġclearly: 420
Ġsits: 420
Ġstret: 420
Ġperfectly: 420
LLL: 420
using: 419
Ġproceed: 419
Ġfixed: 418
Ġswim: 418
Ġlog: 418
ĠGuy: 418
ĠAlden: 418
ĠAN: 418
IGHT: 418
Ġstairs: 417
ours: 417
Ġtears: 417
Ġknife: 417
Ġdiscovered: 417
just: 417
ession: 417
ulous: 417
Ġships: 417
ĠRy: 417
Ġdr: 416
was: 416
ĠOther: 416
Ġcontin: 416
Ġemer: 416
ĠMot: 416
ias: 416
ĠDis: 416
ĠBet: 416
Ġaddition: 416
Say: 416
Ġbrothers: 415
ĠLea: 415
Ġbelieved: 415
These: 415
Keep: 415
ĠEven: 415
kins: 414
Ġrepe: 414
ĠGold: 414
Ġscrew: 414
Ġfin: 414
dies: 414
Ġyounger: 414
Ġmale: 414
(: 414
Ġspoken: 413
ago: 413
Ġcontract: 413
Ġneither: 412
chuckles: 412
Ġseconds: 412
ails: 412
Ġcraw: 412
Ġple: 412
bert: 412
Great: 412
DS: 411
Ġmedicine: 410
iles: 410
Ġpound: 410
anda: 410
ĠMat: 410
ĠWAS: 410
ĠOK: 410
hab: 409
Ġcalls: 409
ĠDoctor: 409
Ġsides: 409
Ġdemand: 409
Ġfaces: 409
Ġdecide: 409
ĠStone: 409
ELL: 409
Um: 409
Ġflower: 408
Ġtelephone: 408
ires: 408
Ġdoors: 408
Ġbeach: 408
?': 408
Ġairplane: 407
Ġkinda: 407
Ġruns: 407
Ġmel: 407
Ġshown: 407
Ġtaught: 407
ĠRoy: 407
}: 407
Ġafterwards: 406
Ġimag: 406
Ġarrow: 406
Ġcopy: 406
Ġworried: 406
Ġopportunity: 406
Ġhelping: 405
ching: 405
Ġopening: 405
Ġrecognize: 405
ĠBig: 405
arily: 404
ĠSmith: 404
fortun: 404
cean: 404
ĠAre: 404
aid: 403
Ġtrail: 403
Ġwoof: 403
ubl: 403
dden: 403
ĠChurch: 403
ĠNav: 403
Ġproperly: 402
ĠDou: 402
Ġslight: 402
antly: 402
Ġmountain: 402
Ġsoup: 401
Ġign: 401
Ġwrest: 401
ĠSim: 401
Ġinfluence: 401
Ġdistribut: 401
ĠSing: 401
ĠWarren: 401
ĠQ: 401
¼: 401
Ġprovide: 400
By: 400
Ġtv: 399
Ġforest: 399
ĠAbe: 399
Ġreceive: 399
Ġrelationship: 399
Ġcastle: 399
Ġmate: 399
ĠSm: 399
Dad: 399
Wow: 399
Ġpants: 398
ĠDay: 398
Ġdragon: 398
pet: 398
ĠWhite: 398
omer: 398
ĠTy: 398
Ġox: 398
Ġfounded: 398
ĠLee: 397
Ġsuc: 397
Ġremark: 397
stand: 397
Ġbathroom: 397
uous: 397
Ġaccording: 397
ĠHal: 397
Ġnation: 397
Ġmention: 396
ills: 396
Ġstock: 396
Ġincluded: 396
read: 395
ĠOld: 395
Ġtur: 395
Ġchat: 395
Ġcorn: 395
Ġcontact: 395
din: 395
Ġprof: 395
Ġmagazine: 394
ĠFriday: 394
From: 394
âĻª": 394
Ġlake: 393
ips: 393
Ġagent: 393
ĠSun: 393
Ġprepared: 393
Lea: 393
Ġsudden: 392
ests: 392
west: 392
ĠDes: 392
Ġgrowing: 391
Ġneat: 391
Ġspin: 391
Ġmarry: 391
Ġservices: 391
sel: 391
ĠRand: 391
Ġcivil: 391
ITH: 391
ancy: 390
ask: 390
Ġhung: 390
Ġevident: 390
Ġeighty: 390
Ġmem: 390
Ġelect: 390
Ġthin: 390
ĠChild: 390
ĠSpanish: 390
Ġdise: 390
Ġpoet: 390
Ġbrilliant: 390
Perhaps: 390
Ġbudget: 390
Ġobviously: 389
Ġwit: 389
action: 389
Ġknowing: 389
ĠParis: 389
ĠDep: 389
Ooh: 389
book: 388
Ġfalls: 388
ĠJenn: 388
Ġwalls: 388
ĠCatherine: 388
ential: 388
Ġsour: 388
Ġforces: 388
UK: 388
gged: 387
Ġent: 387
Ġquality: 387
ĠBern: 387
Ġparticularly: 386
Ġfinding: 386
Ġfairly: 386
mend: 386
Ġbringing: 385
down: 385
see: 385
Ġrom: 385
Ġcomfortable: 385
Ġfam: 385
Ġord: 385
ĠSecret: 385
Ġbyebye: 384
Ġpapers: 384
Ġimpossible: 384
Ġeighteen: 384
Ġbarn: 384
ĠBlue: 384
ĠGerald: 384
ĠChairman: 384
Ġexec: 384
Ġcontinue: 383
rew: 383
Ġrapid: 383
asp: 383
Ġindepend: 383
aries: 383
LES: 383
Ġeasier: 382
Ġschools: 382
Ġrelease: 382
OM: 382
nding: 382
iest: 382
Ġvictim: 382
Ġim: 381
Ġbike: 381
Ġnewspaper: 381
Ġconcerned: 381
ĠDel: 381
Ġcampaign: 381
ĠAcc: 381
ĠJennie: 381
Ġfold: 380
Ġstayed: 380
Ġhunting: 380
Ġjoke: 380
Ġamb: 380
Ġsomewhat: 380
Ġliter: 380
ĠCap: 380
ĠDor: 380
Ġcases: 380
Ġdeck: 380
Ġcancer: 380
Ġpainting: 379
ount: 379
Ġmanaged: 379
Ġhomes: 379
etch: 379
Ġreaches: 379
ived: 379
Fuck: 379
Ġgovernor: 379
uman: 379
het: 378
ital: 378
Ġknees: 378
Ġcy: 378
usion: 378
Pe: 378
Ġsettled: 378
hem: 378
Ġinvestig: 378
ĠAust: 378
ĠBefore: 378
spect: 378
Ġbump: 377
Ġcloser: 377
Ġentire: 377
Miss: 377
Ġeld: 377
Ġsmaller: 376
cent: 376
Ġscreen: 376
Ġheav: 376
ĠEll: 376
ones: 376
Ġancient: 376
Hold: 376
{: 376
âĻª: 376
ĠAwards: 376
Ġvac: 375
ĠBell: 375
ĠMur: 375
New: 375
Ġmult: 375
Ġscient: 375
Ġlocated: 375
ĠCanada: 375
where: 374
Ġenvironment: 374
Ġcute: 374
set: 374
izing: 374
isha: 374
oup: 374
Ġbits: 374
Ġsucceed: 374
ĠMore: 374
ifle: 374
ĠRoyal: 374
ingu: 373
Ġswitch: 373
Ġobjects: 373
Ġbatter: 373
Ġteams: 373
unic: 373
Ġslaves: 373
Ġlatter: 373
ilian: 373
ĠBecky: 372
with: 372
aper: 372
Ġdrinking: 372
pering: 372
Ġpony: 372
Ġwhe: 372
Ġworst: 372
ooh: 372
ording: 372
Ġmod: 372
Ġthus: 372
ĠRep: 372
bow: 371
ĠDick: 371
Ġsection: 371
erc: 371
Ġstaff: 371
Ġ!": 371
anu: 370
Ġhapp: 370
Ġsquee: 370
ames: 370
Ġpal: 370
Ġpossibly: 370
ĠFil: 370
Ġperformance: 370
Ġretired: 370
Ġcolonel: 370
----------------: 370
Ġbub: 369
Ġbegins: 369
Ġwindows: 369
Ġfeels: 369
ĠCollege: 369
Ġdata: 369
Ġbenef: 369
ĠLab: 369
Ġopinion: 369
Isn: 369
ĠSec: 369
ĠDiv: 369
Ġ#: 369
gain: 368
Ġresponse: 368
Put: 368
Ġchanges: 368
Ġrout: 368
Ġformula: 368
ĠMolly: 368
ĠWhile: 368
Ãº: 368
Ġpsych: 367
Ġflag: 367
ground: 367
Ġobl: 367
Ġaut: 367
ĠWor: 367
Mom: 367
ĠAh: 367
Ġsuspect: 367
Ġpapa: 366
Ġstaying: 366
ops: 366
Ġbud: 366
Ġtractor: 366
ĠCamp: 366
Ġrocks: 366
ĠSand: 366
sighs: 366
Ġboss: 366
Ġrules: 366
ography: 366
ĠTucker: 366
Ġmail: 365
gin: 365
Ġevents: 365
Ġsomet: 365
aked: 365
Ġoppos: 365
Ġodd: 365
Ġdeveloped: 365
Ġser: 365
SSS: 365
ember: 364
Ġrepeated: 364
BC: 364
Ġtoes: 364
Ġgentle: 364
Ġprevent: 364
ued: 364
ored: 364
ange: 364
Ġplayers: 364
ĠAsian: 364
Ġaircraft: 364
Ġwhispered: 363
silver: 363
ĠFlorida: 363
Gl: 363
ĠSummer: 363
ĠBarry: 363
ĠPak: 363
Åį: 363
Ġordered: 362
Ġdoin: 362
First: 362
ĠMY: 362
phone: 361
raw: 361
Ġmetal: 361
Ġfoc: 361
Ġleading: 361
[: 361
ĠLucy: 361
Ġpolit: 361
Ġforced: 361
Ġsposta: 360
Ġyell: 360
fort: 360
Ġbloody: 360
Ġtroops: 360
utenant: 360
ĠLoire: 360
Ġslightly: 359
Ġscrat: 359
Ġcarrying: 359
Ġfishing: 359
Ġremind: 359
rupt: 359
Pl: 359
iously: 359
ĠAT: 359
ĠSwitzerland: 359
ĠMexico: 359
ĠFenn: 359
Ġcrayons: 358
Ġdar: 358
ĠMonday: 358
ream: 358
ingly: 358
Ġscarcely: 358
Ġprogress: 357
Ġconcern: 357
Ġwhist: 357
ĠChinese: 357
Ġfancy: 357
Ġsigned: 357
oted: 357
Ġknowledge: 357
yer: 356
Ġmicrophone: 356
Ġder: 356
atoes: 356
ucky: 356
Ġmirror: 356
Ġkeeps: 356
ept: 356
Ġnum: 356
Ġappreci: 356
Ġavailable: 356
Ġpalace: 356
Ġenv: 355
Ġsixty: 355
pers: 355
Ġelectric: 355
Ġextreme: 355
Ke: 355
Ġelected: 355
Ġhanging: 354
looking: 354
Ġsoftly: 354
Ġpulls: 354
ĠUrs: 354
=: 354
ices: 354
ented: 354
ĠEvery: 354
ĠVictor: 353
ĠRoger: 353
Ġbare: 352
Ġknocked: 352
Ġetc: 352
ĠChic: 352
Ġacting: 352
Ġexcellent: 352
yle: 352
ĠJew: 352
Ġadminist: 352
Ġvessel: 352
Ġdolly: 351
Ġbat: 351
ses: 351
rest: 351
Ġtraining: 351
Ġexpression: 351
Alright: 351
Ġotherwise: 350
oes: 350
ĠMount: 350
OD: 350
ĠHay: 350
has: 349
Ġrad: 349
ww: 349
ĠJud: 349
Ġdetermined: 349
Ġplants: 349
Ġheaven: 349
Ġforgotten: 349
Ġanim: 349
ĠCharlotte: 349
Ġthrowing: 348
rang: 348
ĠMike: 348
Ġupset: 348
Ġ"[.: 348
Ġassoci: 348
Ġsuggested: 348
Ġafford: 348
Ġfought: 348
angle: 347
Ġgently: 347
Ġdolls: 347
Ġtele: 347
fly: 347
Ġmission: 347
olly: 347
ĠMaster: 347
Ġvict: 347
ĠCanad: 347
Ġuses: 346
Ġamazing: 346
kay: 346
pos: 346
soft: 346
ĠGeorgia: 346
ĠDallas: 346
Ġorders: 345
ither: 345
Ġmemory: 345
Ġsports: 345
Ġburst: 345
Ġpresence: 345
Ġcred: 345
Ġthee: 345
ĠColonel: 345
ĠChicago: 344
itting: 344
ĠRock: 344
ĠMet: 344
Ġoffered: 343
Ġir: 343
Ġcrow: 343
Ġstops: 343
Ġfeelings: 343
Ġdirect: 343
Ġrelated: 343
ĠSus: 343
Ġscience: 343
Ġfond: 343
ENT: 343
Ġshopping: 342
Ġdecl: 342
Ġrepl: 342
Ġjigsaw: 342
ĠOrder: 342
ģ: 342
Ġrequest: 341
astic: 341
Ġthrown: 341
oma: 341
rig: 340
ĠMill: 340
uments: 340
Ġgang: 340
Ġfortune: 340
Nice: 340
this: 339
Ġcarriage: 339
Ġkinds: 339
Ġrespond: 339
his: 339
Ġyay: 339
ĠWashington: 339
Ġsees: 339
ĠSanta: 339
Ġaware: 339
Ġaye: 339
Ġprofess: 339
Ġdebut: 339
ooth: 338
Ġrecognized: 338
Ġexcitement: 338
Ġloc: 338
ĠRuth: 338
Ġpred: 338
rec: 337
Ġfox: 337
Ġgreatest: 337
ĠAwww: 337
ĠRel: 337
osh: 336
Ġsocks: 336
Ġshoulders: 336
ĠOlympics: 336
ĠJap: 336
Ġwestern: 336
ĠArab: 336
ĠMarilla: 336
Ġtooth: 335
Ġfrogs: 335
Ġnarrow: 335
year: 335
ĠEarly: 335
ault: 334
Rem: 334
Ġshowing: 334
fall: 334
Ġquietly: 334
Ġnursery: 334
Ġexerc: 334
Ġ"[$=: 334
Ġthoughts: 334
asc: 334
Ġwedding: 334
olars: 334
iny: 333
ody: 333
iant: 333
Ġaverage: 333
ĠGrandma: 333
About: 333
ĠGovernor: 333
Ġfurn: 332
Ġlarger: 332
Ġpump: 332
Ġeverywhere: 332
ĠOklahoma: 332
Ġnovel: 332
Ġinternational: 332
ĠSince: 332
Ġremembered: 331
ially: 331
Ġfourth: 331
Ġpowerful: 331
ffic: 331
Ġdamn: 331
itz: 331
Ġmatters: 331
osen: 331
ĠMatthew: 331
rence: 331
Ġmere: 331
fish: 330
Ġwaited: 330
Ġwondering: 330
Ġmama: 330
Ġfully: 330
Ġyummy: 330
ĠHaw: 330
Ġcommittee: 330
Ã¨: 330
EL: 330
there: 329
Ġmarriage: 329
Ġextend: 329
Ġactive: 329
ĠPolly: 329
ĠPost: 329
Tom: 329
ĠBest: 329
bes: 328
Ġsett: 328
urance: 328
ĠLar: 328
cial: 328
Ġevil: 328
Ġwitness: 328
Ġ"..: 328
enc: 327
Ġfrightened: 327
Ġsmiling: 327
Ġpushed: 327
Ġweird: 327
Ġveh: 327
ĠUN: 327
Ġdetect: 327
ĠLake: 327
Ġnorthern: 327
Ġpale: 327
Ġpeekaboo: 326
ites: 326
ken: 326
Ġconstruction: 326
Ġmam: 326
Ġtradition: 326
Ġachie: 326
Ġcruel: 326
ĠBay: 326
ances: 325
ĠStep: 325
giggles: 325
Ġtou: 325
KN: 325
ĠMargaret: 325
Ġcourage: 325
ILL: 325
Ġ...": 325
Ġ(;: 325
rog: 324
Ġburied: 324
Ġshock: 324
Ġstudied: 324
ONE: 324
Ġstir: 323
pose: 323
Ġexplained: 323
Ġpressure: 323
Ġdying: 323
Ġreckon: 323
Ġqueer: 323
ĠAirport: 323
Ġhorsie: 322
Ġsink: 322
Ġplastic: 322
Ġopens: 322
Ġstom: 322
Ġriding: 322
Ġmouse: 322
Ġpizza: 322
aura: 322
ĠTown: 322
Ġtransfer: 322
ĠCromer: 321
vey: 321
aling: 321
Ġdirectly: 321
ĠMag: 321
aded: 321
Ġqual: 321
ĠMax: 321
ĠVirginia: 321
hered: 321
chair: 320
ĠOx: 320
Ġpassing: 320
urry: 320
Ġinform: 320
KAR: 320
vol: 320
ANT: 320
UST: 320
iety: 319
Ġsore: 319
Ġpow: 319
ĠAngeles: 319
amer: 319
oney: 319
ĠRoad: 319
Didn: 319
Ġbaseball: 318
pping: 318
Ġ[?: 318
Ġplanning: 318
Ġsever: 318
ĠWho: 318
ference: 318
ĠLaura: 318
Ġreply: 318
Act: 318
ilities: 318
Ġgreater: 318
haps: 317
Ġcooking: 317
chief: 317
Ġsafety: 317
ishing: 317
ertain: 317
Ġess: 317
ĠCast: 317
Ġentertain: 317
Ġroles: 317
ĠAfrica: 317
ĠRemi: 317
ĠWindows: 317
tering: 316
Ġrecently: 316
Ġcab: 316
more: 316
ffe: 316
Ġcad: 316
actually: 316
ales: 316
arch: 316
reat: 316
uclear: 316
Shut: 316
ĠHAVE: 316
Ġbecoming: 315
Ġpeas: 315
Ġincludes: 315
ensive: 315
Ġunt: 314
Ġexcl: 314
ĠGabrie: 314
ĠCourt: 314
soci: 314
..: 313
mark: 313
asing: 313
ĠAfrican: 313
ĠRachel: 313
itar: 313
Ġadvant: 313
ĠOlymp: 313
fessor: 313
Possum: 313
izes: 312
vert: 312
Ġsole: 312
ibility: 312
Ġmainly: 312
ĠBradley: 312
ĠBarty: 312
Ġrings: 311
Ġsticks: 311
Ġplat: 311
Ġdunno: 311
Ġnormally: 311
Ġshook: 311
Ġyards: 311
Mother: 310
put: 310
iger: 310
Ġwheels: 310
Ġshell: 310
oking: 310
ĠMam: 310
tained: 310
utive: 310
Ġforms: 309
ichael: 309
airs: 309
ĠSpain: 309
ĠBraz: 309
ashed: 308
Ġdey: 308
aking: 308
Ġwine: 308
ĠHarold: 308
Those: 308
Ġcircumstances: 308
ĠZealand: 308
bout: 307
rick: 307
ware: 307
Ġweeke: 307
Ġbirth: 307
Ġsplend: 307
Ġbiggest: 306
Ġfuss: 306
Ġoffe: 306
Ã¤: 306
ĠMayenne: 306
isten: 305
Ġhook: 305
making: 305
Ġboats: 305
Ġlanguages: 305
road: 305
Ġbeauty: 305
Ġproperty: 305
ĠPilchard: 305
very: 304
cture: 304
Ġestablished: 304
Ġdesper: 304
Ġtarget: 304
Ġrap: 304
Fine: 304
Ġfailed: 304
ĠHen: 303
Ġshouted: 303
Ġaim: 303
Everything: 303
Call: 303
antic: 303
ĠItaly: 302
Ġquar: 302
gency: 302
Ġaside: 302
Ġjobs: 302
Ġunknown: 302
Ġoccur: 302
Ġbisc: 302
oly: 302
Ġadvice: 302
ĠKingdom: 302
Ġselected: 302
ĠTHIS: 302
ays: 301
iting: 301
Ġadult: 301
ese: 301
Ġtotally: 301
EB: 301
Ġcurrently: 301
NOW: 301
;": 301
itched: 300
Ġpositive: 300
ĠAlex: 300
geant: 300
otte: 300
Ġperform: 300
Ġperformed: 300
ĠDemocratic: 300
UGH: 300
~: 300
Ġcookies: 299
aching: 299
Ġreasons: 299
ĠDolly: 299
Ġwished: 299
ĠChief: 299
Something: 299
Ġhurried: 299
Tilda: 299
Ġremoved: 298
ĠFirst: 298
Ġdism: 298
Ġcentral: 298
Ġdoggy: 298
Ġinterview: 298
Ġjail: 298
itiz: 298
Ġthy: 298
ĠPays: 298
Ġexciting: 297
Ġengaged: 297
Ġfrequ: 297
Ġsignific: 297
ĠJason: 297
rol: 297
ĠDutch: 297
Three: 297
ĠHER: 297
tles: 296
illed: 296
Ġvoices: 296
Ġmatches: 296
icles: 296
Ġentirely: 296
ĠEarth: 296
Ġdescribed: 296
umbo: 296
Ġdreams: 296
ĠWomen: 296
Ġmedical: 296
ĠFootball: 296
±: 296
Ġ"ï¿: 296
Ġtummy: 295
ĠJeff: 295
tend: 295
Ġeaten: 295
aining: 295
ents: 295
Ġduh: 295
iam: 295
yes: 295
while: 295
ĠGer: 295
Ġterrit: 295
ĠDem: 295
Ġhighest: 295
ĠPres: 295
People: 295
ĠScot: 295
Ġgir: 294
Ġpuppy: 294
Ġdisappeared: 294
zes: 294
oud: 294
Ġresults: 294
Ġchampions: 294
ĠEgypt: 294
ĠRussia: 294
Ġveget: 293
Ġfairy: 293
Ġdelicious: 293
asty: 293
Ġterror: 293
vere: 293
Ġchest: 292
Ġhelps: 292
Ġsomehow: 292
Ġunderstood: 292
eth: 292
ĠArmy: 292
Amer: 292
ĠFrost: 291
itten: 291
Ġthrows: 291
ĠYour: 291
Ġadop: 291
Ġdrops: 290
Ġpaying: 290
ĠMajor: 290
whispers: 290
ades: 290
sil: 290
Ġsouthern: 290
Ġsmiled: 290
Ġghost: 290
ĠBritain: 290
ĠBrown: 289
unts: 289
illing: 289
Ġhes: 289
Ġautom: 289
Ġkm: 289
ĠDid: 289
III: 289
Ġjumped: 288
Ġtouched: 288
Ġtalks: 288
ables: 288
Ġfriendly: 288
iano: 288
ĠNed: 288
oto: 288
Ġideas: 288
Ġgentlemen: 288
Ġconstit: 288
ĠBecause: 288
Ã¶: 288
puts: 287
Ġdust: 287
Ġsweetheart: 287
Ġrib: 287
cream: 287
icked: 287
ook: 287
Ġhorrible: 287
ĠFrancis: 287
Ġstudents: 287
Ġtrousers: 287
ĠBull: 287
ĠXX: 287
Ġparticip: 286
Ġforever: 286
Ġissues: 286
Jack: 285
Ġfamiliar: 285
Ġrespons: 285
Ġresponsible: 285
Ġprovided: 285
Ġdrawn: 284
Ġends: 284
omb: 284
ilies: 284
Mrs: 284
Ġdrunk: 284
ĠMarg: 284
venue: 284
Ġmort: 284
ĠAlaeddin: 284
Ġreplaced: 283
Ġdevelop: 283
Ġbeneath: 283
John: 283
ĠEdmund: 283
lands: 283
uge: 283
ĠNOT: 283
OH: 283
Ġcutting: 282
Ġmill: 282
Ġoccurred: 282
Ġmountains: 282
ansas: 282
ĠMAN: 282
¢: 282
ĠWent: 282
Hmm: 282
icated: 281
Ġapparently: 281
ords: 281
Ġstre: 281
Ġstones: 281
MW: 281
Ġsecurity: 281
sung: 281
Ġauthority: 281
ĠAlfgar: 281
Ġnecess: 280
sec: 280
Ġrecogn: 280
opher: 279
Ġcle: 279
Ġvocal: 278
oves: 278
ĠAc: 277
icing: 277
asy: 277
imes: 277
ological: 277
ners: 276
HH: 276
rent: 276
ĠMex: 275
ality: 275
abr: 274
anced: 274
iversity: 274
owed: 273
uns: 273
rod: 272
eping: 271
gas: 271
enn: 270
aven: 269
ulation: 269
Ġwid: 269
face: 268
alm: 267
Ġhur: 267
NN: 267
¶: 267
Ġvers: 266
ott: 266
Ġeng: 266
azed: 265
inky: 264
aming: 264
RR: 264
roll: 263
Ġbot: 263
Q: 263
ators: 262
ased: 262
ape: 262
hah: 261
Ġcomple: 261
order: 260
resent: 259
ittee: 259
look: 258
Ġspe: 257
ĠGovern: 257
erson: 256
oring: 256
aws: 256
ols: 255
ache: 255
Ġbelie: 255
Ġfif: 253
aging: 253
Ġwag: 253
ulations: 253
ipping: 252
gon: 252
itions: 251
oul: 251
bably: 251
akes: 250
HER: 250
owing: 249
rey: 249
anor: 249
Ġdepart: 249
ĠPet: 248
ĠEle: 248
Ġut: 247
annah: 247
empt: 246
izabeth: 246
Ġinvest: 246
Ġtim: 245
ittle: 244
ĠWind: 244
Ġneighb: 244
ruct: 243
Ġcompan: 243
Ġimport: 242
anna: 241
aged: 241
ores: 241
>: 240
band: 239
eter: 239
isher: 239
Ġlov: 239
Ġfright: 238
Somet: 238
orough: 238
aning: 237
icious: 237
£: 237
<: 237
ading: 236
ogether: 236
iol: 236
omed: 236
â: 236
ency: 236
Ġjour: 236
ĠAf: 236
ashing: 235
tom: 235
zen: 235
Ġmur: 235
wise: 234
Ġclim: 234
ract: 233
Ġinvol: 233
ason: 233
fers: 232
ention: 232
Ġdam: 232
pril: 232
Ġorigin: 232
acing: 231
aul: 231
Per: 231
ouse: 231
part: 230
Ġsil: 229
oms: 227
ĠAnge: 227
Ġmagn: 227
azing: 227
°: 227
ought: 226
illy: 226
EST: 226
aker: 225
uses: 224
ĠChar: 224
ĠAlf: 224
ESS: 224
ght: 223
aches: 222
ĠMart: 222
cell: 221
ights: 221
ards: 220
ials: 220
ollow: 219
gram: 219
Ġmount: 219
iend: 219
Ġopp: 218
ighs: 218
ocks: 217
bits: 217
ides: 217
omet: 217
Ġclos: 216
anny: 216
eder: 216
rib: 215
XP: 215
hire: 215
ockey: 215
ounce: 214
Ġsim: 213
ĠCount: 213
Ġeduc: 213
actly: 213
rying: 212
rica: 212
uits: 212
ounds: 211
ulated: 209
Ġton: 209
pered: 209
ement: 209
then: 208
esus: 207
orts: 206
JJ: 206
Ġpossib: 206
aret: 205
eds: 205
Ġjud: 205
Ġchick: 204
iers: 204
chie: 203
utch: 203
oki: 201
phan: 201
anch: 201
ĠBeck: 200
Ġhous: 200
ĠColl: 199
icking: 198
ups: 197
uation: 197
oos: 197
¡: 197
oles: 196
uty: 196
ork: 195
vell: 195
aur: 194
Ġpret: 194
ients: 194
oved: 194
Ġpriv: 194
Ġtar: 193
irty: 193
oman: 193
ello: 192
elve: 192
olutely: 192
ead: 191
Ġdun: 190
Ġparent: 190
vious: 189
ĠEur: 189
ivil: 189
Ġdeterm: 188
cted: 188
overed: 187
azy: 187
ician: 186
ĠQue: 186
iful: 186
Ġeas: 185
ĠEng: 185
vern: 185
aled: 185
Ġgrad: 183
ross: 183
irst: 183
Ġsis: 183
ational: 183
augh: 183
ĠRuss: 183
range: 183
idden: 183
rict: 182
Ġpolic: 182
Ġpubl: 182
ederal: 182
urity: 182
Ġmunicip: 182
ķ: 182
nect: 181
iced: 181
atter: 180
uckles: 180
rect: 179
Ġpr: 179
cket: 178
ultan: 178
Ġbutt: 177
isions: 177
Ħ: 177
osing: 176
bey: 176
âĻ: 176
Ġblank: 174
Ġbes: 174
Ġeff: 174
GH: 174
Ġrele: 173
lected: 173
Ġgovern: 173
self: 172
elly: 172
IGH: 172
Ń: 172
aves: 171
icy: 171
¦: 171
Ġesc: 169
amed: 169
ighb: 169
Ġestabl: 169
ears: 168
vision: 168
ulf: 168
Ġanx: 167
ocrat: 167
ener: 166
alley: 166
cient: 166
Ġtow: 165
acks: 164
Ġmir: 164
aving: 164
Ġep: 163
ardon: 162
chn: 161
reg: 160
actor: 160
orrow: 160
olute: 159
roy: 159
ĠPil: 158
Ġhus: 158
rug: 157
ummy: 156
oured: 156
craft: 156
paper: 154
Ġvill: 154
ĠSant: 153
apping: 152
elt: 152
Ġfil: 152
ases: 151
Ġappre: 151
ooke: 150
viously: 150
²: 150
Ġsus: 149
ishop: 149
Ġmicro: 148
oken: 147
known: 147
ivid: 147
§: 147
AVE: 147
obile: 146
rer: 146
eman: 146
ether: 145
semb: 145
Ġes: 144
Ġbeh: 144
ourt: 144
#: 143
rican: 143
anger: 143
olic: 143
inite: 142
ĠLou: 142
ounter: 142
atory: 142
$: 142
ager: 141
ween: 141
resh: 140
igs: 140
Ġpos: 140
ribut: 140
ĠFlor: 139
velop: 139
ensus: 139
ĩ: 139
heart: 138
ushed: 138
aken: 137
cuse: 136
ruction: 136
cience: 136
MY: 136
onna: 135
utes: 135
oice: 135
Ġtast: 134
uthor: 134
itary: 133
minist: 133
raph: 132
lish: 132
ried: 131
Ġpeek: 130
Ġearl: 130
\: 130
ready: 128
Ġrelations: 128
hile: 127
unny: 127
appy: 126
į: 126
ledge: 126
stem: 126
bers: 123
Ġwel: 123
inger: 123
ĠBrit: 123
ension: 122
Ġdiffe: 122
llust: 122
Ĥ: 122
arent: 121
Ġnurs: 119
Ġimmedi: 118
ospital: 118
omba: 118
Ġlar: 118
omen: 118
fast: 117
anish: 117
unity: 117
ploy: 117
Ġpartic: 117
ucker: 116
irth: 116
aug: 115
Ġnin: 114
ares: 114
oub: 114
aim: 113
hips: 112
Ġconvers: 111
ł: 111
arently: 110
ī: 110
eech: 108
oof: 108
Ł: 108
ĠJose: 107
orge: 107
ousand: 107
conom: 107
ademy: 107
iron: 106
arth: 106
orning: 106
ª: 106
sequ: 105
Ġsurpr: 104
Ġmach: 103
osp: 103
ĠHist: 103
gether: 102
chool: 101
Ġprod: 101
mbers: 101
Ġmag: 100
odd: 100
omin: 100
host: 99
ooper: 99
eneral: 99
İ: 99
achel: 98
urch: 98
ĠRem: 97
oons: 97
iday: 97
Ġtit: 97
arly: 96
joy: 96
ental: 96
epend: 96
Ġcontro: 96
hew: 95
Ġtrad: 95
Ġsepar: 94
ĠSum: 94
ushes: 93
Ġstru: 93
ĠGab: 92
Ġopport: 92
ictor: 92
aughter: 92
gest: 91
ople: 91
ege: 91
ĠFoot: 91
ĠBrad: 91
aser: 90
initely: 90
ĠChr: 90
cely: 90
&: 89
anuary: 88
ilda: 87
ples: 87
Ĩ: 87
onel: 87
Ġvot: 86
ugust: 85
oming: 84
erry: 84
Ġmedic: 84
ishes: 84
ĠFranc: 84
ĠDist: 84
Ġcam: 83
ety: 83
chard: 83
ocratic: 83
ences: 82
ggy: 82
icro: 82
ĠChair: 82
Ġavail: 81
ebruary: 81
owers: 80
itty: 80
ilar: 80
Ġfem: 80
ushing: 79
terday: 79
reen: 79
Ġinflu: 79
rene: 79
hall: 78
enty: 78
emy: 77
ergy: 77
aces: 76
Ġey: 76
ogn: 76
ĠThom: 76
outh: 75
¥: 75
iliar: 74
lden: 74
´: 74
pend: 73
Į: 73
ctober: 73
Ġwed: 72
Ġfig: 72
edy: 72
lex: 71
ocol: 71
ontin: 71
entle: 71
Ġlangu: 71
ellig: 70
ĠTex: 70
ober: 70
leep: 70
Ġreck: 70
Ġbec: 69
Ļ: 68
Ġrul: 68
yond: 68
Ġtot: 67
Ġter: 67
ĠGeorg: 67
alc: 67
irgin: 67
eaks: 66
Ġspir: 66
ouble: 66
stood: 66
enny: 66
lah: 65
Ľ: 65
ffect: 65
anche: 65
ĠChampions: 65
ouch: 64
aboo: 64
Ġremem: 64
Poss: 64
cember: 64
othy: 63
undred: 63
Ī: 63
ĥ: 63
medi: 62
oose: 62
oops: 62
reme: 62
angu: 61
Ġresp: 61
ĠCharl: 61
É: 60
icans: 60
olm: 60
izza: 59
Ġquest: 59
ichard: 59
osta: 59
ĵ: 59
cellent: 58
Ġcircumst: 58
sych: 58
á: 58
note: 57
oun: 57
Ġescap: 57
lease: 57
stairs: 56
aced: 56
iew: 56
enne: 56
¸: 56
ully: 55
fess: 54
ĭ: 54
¬: 54
Ġprep: 53
Ġcircum: 53
lend: 53
¯: 53
©: 52
eared: 52
ungle: 52
riage: 52
Ġrequ: 52
»: 52
aught: 51
iod: 51
ocal: 51
aign: 51
upid: 51
isf: 50
Ġdeter: 49
aturday: 49
ĠEdm: 49
Ġalb: 48
ousin: 48
arrow: 47
Ġnaught: 47
ĳ: 47
ĠVirgin: 46
clud: 46
omes: 46
ularly: 46
Ġide: 46
addy: 45
roat: 45
anning: 45
rible: 45
Ġdoub: 44
Ĳ: 44
Ë: 44
Ġiss: 43
thur: 42
amily: 42
Ġexcit: 41
atur: 41
Ġaver: 40
ĸ: 40
Ġpleas: 39
ffee: 39
erland: 39
reet: 39
ondon: 39
Ġpenc: 38
ply: 37
Ġdeg: 37
Ġrab: 37
ounced: 37
Ġfut: 37
ĠOrd: 37
@: 37
Ê: 36
¾: 36
·: 35
inting: 35
ĠRog: 35
eddy: 34
noon: 33
pecially: 33
raft: 32
elen: 32
iggles: 31
ounc: 31
Ġwat: 31
fter: 31
illiant: 31
ĠSund: 31
ajor: 31
¿: 31
Ĺ: 31
eah: 30
osaur: 30
Ġdire: 30
Ġcomput: 30
Foot: 30
orks: 30
orth: 30
eless: 29
Ġpap: 29
uten: 29
ĠItal: 29
ļ: 29
rost: 28
ossible: 28
Ĵ: 28
ħ: 28
Ġmov: 27
Ġwond: 26
Ġbeaut: 26
reed: 26
®: 26
¹: 26
Ġnur: 25
bered: 25
aed: 25
onday: 25
ccess: 24
aimed: 24
Ġstren: 24
Ġairpl: 24
Ġbene: 23
ulty: 23
ourn: 23
itc: 23
rees: 22
lebr: 22
Ġwom: 22
asons: 22
Ġninet: 22
º: 22
onse: 21
ceed: 21
oren: 21
lymp: 20
Than: 20
Ġdiff: 20
Ģ: 20
Ġgrou: 19
orter: 19
Ġpuzz: 18
allas: 18
Ġcour: 18
Ġoffic: 18
enth: 17
Ġsaf: 17
arden: 17
ĠGerva: 17
fection: 17
atherine: 16
Ġfing: 16
ggie: 16
arty: 16
reek: 16
¨: 16
essie: 15
ouncil: 15
ternational: 15
Ġperfor: 15
ĠAmer: 15
raid: 15
ifornia: 15
Ø: 15
unicip: 15
È: 15
wered: 14
elp: 14
orry: 14
Ġnorm: 14
Ġepis: 14
Ġdanc: 13
Ġhors: 13
icha: 13
selves: 13
itchen: 13
xxx: 12
^: 12
Ġans: 12
elest: 12
Illust: 12
lear: 11
alcolm: 11
hest: 11
Ġcir: 10
CHILD: 10
APTER: 10
iforn: 10
oughs: 9
Ġpict: 9
ohn: 9
arliament: 9
¤: 9
ı: 9
µ: 9
Ĭ: 8
Ġtong: 8
Ġtrous: 8
eleste: 8
cially: 8
ĺ: 8
rench: 8
Ġhist: 8
Ç: 8
Ġdiffic: 8
Ġcray: 7
Ġnea: 7
asket: 7
ateg: 7
ľ: 7
ŀ: 7
thew: 6
ĠAustral: 6
gypt: 6
Ķ: 6
astern: 6
useum: 6
xx: 5
amund: 5
hern: 5
Ġnatur: 5
itzerland: 5
inese: 5
à: 5
$=: 4
abeth: 4
Ġdif: 4
fta: 4
essel: 4
ajest: 4
ashion: 4
ength: 4
Ġcamer: 4
mpions: 4
Ù: 4
ggest: 4
Ġfav: 3
Ġjigs: 3
--------: 3
rigin: 3
lahoma: 3
ã: 3
Ġopin: 3
Ġcharac: 2
Ġoccas: 2
ĠGeor: 2
Ġhig: 2
Ġstr: 2
aeddin: 2
eally: 2
Ġocc: 2
Ŀ: 2
Ġchocol: 2
Ï: 2
oday: 2
ĠRepubl: 2
Æ: 2
Ġvide: 2
Ġsandw: 1
ebye: 1
Ð: 1
ô: 1
ograp: 1
Û: 1